<unk>	0
<s>	0
</s>	0
=	-2.28177
▁	-2.5985
▁#	-2.7761
|	-2.97894
Case	-3.10775
Num	-3.21746
ber	-3.21748
er	-3.34179
Gend	-3.36026
C	-3.52265
=1|	-3.58608
▁N	-3.6165
Masc	-3.94104
Nom	-4.14404
P	-4.25416
=3|	-4.50607
Cpd	-4.60959
M	-4.60995
Neut	-4.68756
Acc	-4.84114
JJ	-4.98308
D	-5.00392
d	-5.01146
se	-5.08647
▁V	-5.09218
Ten	-5.11128
Per	-5.16971
Form	-5.18222
S	-5.19131
V	-5.20083
erb	-5.21837
son	-5.23819
oo	-5.23835
Fem	-5.32677
X	-5.32983
▁PP	-5.41117
▁C	-5.41448
ing	-5.45076
res	-5.49442
▁PR	-5.50885
Ind	-5.60497
oc	-5.60704
PP	-5.66163
A	-5.67656
L	-5.70405
▁ca	-5.71347
Ins	-5.7833
▁CC	-5.80852
Gen	-5.81985
H	-5.87421
▁tad	-6.05378
s	-6.13197
m	-6.17758
a	-6.39636
f	-6.47356
R	-6.5696
▁na	-6.60808
G	-6.61113
Q	-6.61415
▁CAD	-6.63309
=2|	-6.64089
N	-6.6654
▁CGD	-6.69303
e	-6.74553
ya	-6.80356
Ab	-6.80361
o	-6.84121
▁KD	-6.84798
Imp	-6.8513
Opt	-6.90192
i	-6.92526
lur	-6.98051
I	-7.04117
▁iti	-7.04199
▁sa	-7.08682
Abl	-7.08795
▁eva	-7.10649
▁tu	-7.10824
▁yad	-7.15611
EM	-7.1758
T	-7.18779
▁a	-7.20676
▁mad	-7.21738
art	-7.21786
▁vi	-7.2943
▁vA	-7.36984
ka	-7.38093
▁sarva	-7.44005
sya	-7.47069
Dat	-7.48207
▁pra	-7.48416
▁api	-7.51999
▁idam	-7.52097
▁tvad	-7.52637
▁BU	-7.53556
NUM	-7.53904
na	-7.58067
yA	-7.58718
r	-7.59181
▁taTA	-7.59261
▁kR	-7.61944
n	-7.64641
▁J	-7.6498
y	-7.65992
▁hi	-7.67751
▁su	-7.68055
▁vac	-7.74707
aH	-7.77251
▁as	-7.7774
▁saM	-7.81019
ice	-7.81159
ass	-7.81361
Vo	-7.81976
▁etad	-7.82516
▁vE	-7.85989
▁mahat	-7.891
ati	-7.9163
▁deva	-7.94361
▁yaTA	-7.96823
ti	-7.99977
▁tatas	-8.01653
B	-8.02866
ma	-8.07003
▁iva	-8.07111
tA	-8.07145
ta	-8.09277
▁tatra	-8.10652
ena	-8.10777
or	-8.11678
▁ka	-8.15325
ra	-8.16205
▁rAjan	-8.17631
AH	-8.17711
am	-8.17804
▁aTa	-8.17911
aM	-8.19414
▁pari	-8.20335
Ger	-8.20832
vA	-8.22063
va	-8.22654
g	-8.23619
Fut	-8.24516
in	-8.24551
t	-8.25918
vi	-8.26336
EH	-8.2819
nA	-8.28601
▁Darma	-8.30341
▁te	-8.31827
pi	-8.32446
yo	-8.33476
pa	-8.33489
mA	-8.34542
▁sva	-8.35243
▁ni	-8.35341
u	-8.35535
▁upa	-8.35991
O	-8.36445
te	-8.37219
An	-8.37646
▁evam	-8.38218
▁gam	-8.38227
j	-8.38251
In	-8.38482
ni	-8.39631
ro	-8.42208
to	-8.4262
on	-8.43414
▁punar	-8.44246
▁anu	-8.45633
▁prati	-8.45908
kA	-8.45991
▁dA	-8.46279
▁sA	-8.46308
▁eka	-8.46395
et	-8.46615
▁aBi	-8.47532
▁dRS	-8.48857
Er	-8.49139
taH	-8.49253
▁tri	-8.50097
yaM	-8.51074
▁mahA	-8.51366
Sca	-8.53382
Na	-8.5381
▁Adi	-8.53905
▁putra	-8.54947
la	-8.56379
vat	-8.58673
▁loka	-8.58717
▁rasa	-8.60343
▁agni	-8.60607
▁arTa	-8.61621
c	-8.62838
saM	-8.63423
▁vid	-8.63667
▁tadA	-8.63842
▁sama	-8.65161
▁indra	-8.65708
pra	-8.66354
▁yat	-8.67328
▁para	-8.68674
▁Atman	-8.69464
▁saha	-8.70156
▁tat	-8.74355
▁anya	-8.77299
▁tva	-8.77736
▁nir	-8.7816
uvAca	-8.78386
▁go	-8.78548
▁mA	-8.79538
yate	-8.79671
re	-8.80026
▁ha	-8.80419
▁kAla	-8.81874
▁cA	-8.82425
ye	-8.84973
At	-8.86548
▁sam	-8.87166
▁me	-8.87453
k	-8.87692
ja	-8.89144
▁jan	-8.89163
al	-8.89361
▁Sru	-8.89867
▁han	-8.90142
▁bala	-8.90653
▁pA	-8.9195
stu	-8.9315
ri	-8.94017
▁yA	-8.95206
Bir	-8.95407
ikA	-8.95988
itA	-8.96264
rA	-8.96344
yaH	-8.97056
▁sTA	-8.9732
p	-8.97349
▁rUpa	-8.97681
▁brU	-8.99222
Am	-8.99929
▁ava	-9.01336
▁tA	-9.01512
ay	-9.02456
nu	-9.02838
▁nAma	-9.02896
▁bahu	-9.02983
lA	-9.03436
BiH	-9.03463
yam	-9.04079
▁kAma	-9.04959
▁brahman	-9.04992
▁raTa	-9.05072
yu	-9.05587
Du	-9.06128
▁karman	-9.06897
ezu	-9.07129
AM	-9.07593
eNa	-9.0763
ita	-9.08788
tu	-9.0879
▁SrI	-9.09223
▁yadi	-9.09308
▁vara	-9.09317
▁Sata	-9.09997
ve	-9.10524
▁tato	-9.1085
U	-9.12058
▁nara	-9.12915
yAM	-9.12952
an	-9.13079
▁pitR	-9.13236
▁samA	-9.13323
ot	-9.14974
tya	-9.15222
▁guru	-9.15403
▁tataH	-9.15826
kAra	-9.16223
▁puruza	-9.16528
▁rAja	-9.16755
Ani	-9.1677
▁Pala	-9.16797
▁ud	-9.17477
▁kaScit	-9.17689
▁atra	-9.18603
▁pUrva	-9.19058
sa	-9.19095
nI	-9.19202
▁iha	-9.19802
ana	-9.19954
▁prAp	-9.20339
tra	-9.21189
▁yajQa	-9.21689
h	-9.21764
▁tasya	-9.22419
v	-9.23053
▁nA	-9.23508
syA	-9.23654
Ta	-9.2399
▁ja	-9.2409
▁taM	-9.25256
Aya	-9.25406
▁dvi	-9.25473
aka	-9.25792
▁man	-9.25805
rI	-9.25979
▁ah	-9.26467
▁brAhmaNa	-9.26991
▁ati	-9.27326
▁yatra	-9.27886
tas	-9.28301
su	-9.28682
Ad	-9.28718
zu	-9.28975
▁guNa	-9.29138
ha	-9.29218
▁viSva	-9.29218
taM	-9.2975
▁manas	-9.29985
▁priya	-9.3078
▁parama	-9.30872
Bi	-9.31117
vAn	-9.31119
▁yo	-9.31323
▁kRzNa	-9.31454
tR	-9.31775
▁muni	-9.3197
▁satya	-9.32824
▁apa	-9.32832
ru	-9.33127
pA	-9.3319
▁ut	-9.34377
▁u	-9.3464
Adi	-9.34785
▁evaM	-9.34884
Ba	-9.34979
▁soma	-9.35229
AnAM	-9.35727
▁da	-9.35745
kam	-9.35851
▁catur	-9.36209
Bya	-9.36881
▁kiM	-9.37346
man	-9.37638
ko	-9.38664
ke	-9.39168
▁Rzi	-9.39322
▁rAma	-9.39347
▁tasmAt	-9.39509
mi	-9.3977
E	-9.3993
▁sUta	-9.40001
▁cEva	-9.40132
▁hari	-9.40165
▁sahasra	-9.40469
▁maDu	-9.40714
jA	-9.40748
kaM	-9.40758
sO	-9.41094
▁tena	-9.41178
▁dur	-9.41294
Ni	-9.4238
▁prA	-9.42454
▁sadA	-9.43112
nAM	-9.44749
mat	-9.44977
tam	-9.45098
Bavati	-9.45211
▁prajA	-9.45314
▁pApa	-9.45339
lI	-9.45507
▁yoga	-9.45667
mAn	-9.4589
za	-9.46017
▁Sara	-9.46319
▁brahma	-9.46739
▁nRpa	-9.46924
▁paQca	-9.46971
NI	-9.47303
nya	-9.47329
▁jQA	-9.47359
anti	-9.47368
li	-9.48291
z	-9.48306
▁BUta	-9.48764
▁ku	-9.49531
wa	-9.49551
▁sma	-9.49554
▁yuj	-9.49658
kara	-9.49714
▁vIra	-9.49782
▁tapas	-9.5007
▁vipra	-9.501
▁doza	-9.51551
vI	-9.51877
tvA	-9.5207
as	-9.52163
▁veda	-9.52684
▁strI	-9.52744
▁ap	-9.52767
yati	-9.52871
▁an	-9.5289
no	-9.53081
▁yaj	-9.53593
▁iz	-9.54005
nam	-9.54184
vad	-9.54241
▁vAta	-9.54823
▁namas	-9.54966
▁vas	-9.55243
kza	-9.55725
▁sattva	-9.55833
▁pat	-9.56355
▁punaH	-9.56775
haM	-9.57273
▁jana	-9.57425
▁pati	-9.57569
▁prANa	-9.58085
▁sarve	-9.58429
▁rAjA	-9.58443
▁purA	-9.58573
ika	-9.5882
ate	-9.59039
si	-9.59208
▁kArya	-9.59798
▁yuDizWira	-9.60487
peri	-9.60529
▁vana	-9.60822
▁Siva	-9.61228
▁vAc	-9.61544
▁viza	-9.61632
▁suKa	-9.61835
kaH	-9.62042
▁BArata	-9.62078
▁muKa	-9.62092
▁ye	-9.6234
▁Bagavant	-9.62367
▁jala	-9.62452
▁karNa	-9.62733
▁grah	-9.62831
itaM	-9.63507
van	-9.63705
▁kara	-9.63843
▁so	-9.64071
▁pANXava	-9.64173
ca	-9.64268
▁devI	-9.64306
▁kaTay	-9.64542
▁pRTivI	-9.64974
naM	-9.65114
hi	-9.65697
kz	-9.65841
▁rakta	-9.66151
▁anta	-9.6641
▁duHKa	-9.66516
▁puNya	-9.66531
ur	-9.66531
▁nAga	-9.66714
opa	-9.66719
yet	-9.66789
▁kRtvA	-9.66821
▁car	-9.66873
▁kuru	-9.66901
▁div	-9.67209
▁dvija	-9.67545
pari	-9.67559
▁Bavat	-9.67624
kR	-9.67699
▁uttama	-9.6785
▁maDya	-9.68229
yAn	-9.68285
▁smR	-9.68573
▁yadA	-9.68686
▁jQAna	-9.68765
yAm	-9.69217
pati	-9.69284
▁dRzwvA	-9.69372
▁ity	-9.69673
▁pAda	-9.69787
▁vizNu	-9.69878
▁suta	-9.69895
▁kar	-9.70033
pat	-9.7004
▁kaTam	-9.70285
▁pitta	-9.70963
▁enad	-9.71303
sta	-9.71393
▁ga	-9.71876
▁devA	-9.72206
▁niz	-9.72228
BU	-9.72279
▁adya	-9.72284
▁divya	-9.724
▁kA	-9.72412
l	-9.72506
▁vajra	-9.72606
▁Bagavat	-9.72756
▁sUrya	-9.7281
▁sapta	-9.72877
asya	-9.72882
▁parA	-9.73063
▁tan	-9.73157
▁ji	-9.73268
mI	-9.73522
naH	-9.73857
rUpa	-9.74294
▁paS	-9.74392
zA	-9.74454
itaH	-9.7451
▁vad	-9.75412
tara	-9.7547
vo	-9.75831
▁Agam	-9.75871
▁hA	-9.76137
▁mR	-9.76258
▁mantra	-9.76269
yAH	-9.76481
▁adas	-9.76715
▁Sak	-9.77153
▁yAvat	-9.77165
▁Baya	-9.77176
▁ganDa	-9.77382
vara	-9.77397
▁BUmi	-9.77537
▁varNa	-9.77542
▁mahAtman	-9.77899
▁antar	-9.78024
▁DA	-9.78092
▁rudra	-9.78756
tAM	-9.78859
▁varza	-9.78948
▁gRha	-9.78984
▁tejas	-9.79093
▁viDi	-9.79106
▁pUjay	-9.79263
▁BIzma	-9.79344
▁gA	-9.79549
▁aFga	-9.79577
▁aS	-9.79585
▁tam	-9.79713
▁mama	-9.79796
▁vAyu	-9.80045
itam	-9.80047
▁mUla	-9.8008
yat	-9.80775
▁tvaM	-9.81224
le	-9.81247
Fga	-9.81343
kram	-9.81399
▁vyA	-9.81414
yE	-9.81547
tva	-9.81551
▁BAva	-9.81764
▁anna	-9.81825
vE	-9.82062
pya	-9.82136
▁BAga	-9.82279
vRt	-9.8283
▁BIma	-9.83017
▁paSu	-9.83033
▁budDi	-9.83402
▁Bavet	-9.84335
▁vAkya	-9.84363
vya	-9.84494
yAt	-9.84589
▁SarIra	-9.84706
▁svayam	-9.85066
▁Sakti	-9.85151
inI	-9.85303
rya	-9.85671
▁kim	-9.85703
hA	-9.86035
sTa	-9.86148
▁GRta	-9.86156
▁k	-9.86252
BA	-9.86305
▁vacana	-9.86349
▁sat	-9.8636
sam	-9.86387
yAd	-9.86641
▁uttara	-9.86687
▁ta	-9.86726
▁kula	-9.87024
lo	-9.87095
▁vR	-9.87184
deva	-9.8746
▁mayA	-9.87642
Eva	-9.87717
▁paQcan	-9.87818
▁bAhu	-9.88012
▁sarvA	-9.88035
▁pArTa	-9.88175
jana	-9.88179
pay	-9.8821
nAm	-9.88257
muKa	-9.88352
tI	-9.88449
▁sura	-9.89086
Pala	-9.89309
▁deha	-9.89334
▁gaNa	-9.89456
tO	-9.89678
▁no	-9.89727
vas	-9.89997
nir	-9.9009
▁Sabda	-9.90507
staTA	-9.90535
tama	-9.90602
▁saMSaya	-9.90777
▁aDi	-9.91094
▁vIrya	-9.91314
ram	-9.91346
ci	-9.91445
trA	-9.91647
▁nI	-9.92038
rasa	-9.9229
▁viS	-9.92303
at	-9.92447
▁Dana	-9.92605
▁aSva	-9.92702
eva	-9.92707
▁jIv	-9.92754
▁yudDa	-9.92937
▁SA	-9.93089
▁svarga	-9.93164
▁kRt	-9.93197
yoga	-9.93692
eta	-9.94005
▁SuBa	-9.94498
▁As	-9.94538
▁Siras	-9.94704
▁kRta	-9.94929
zwa	-9.95274
▁tasyA	-9.95491
▁daSa	-9.95499
sAra	-9.95677
▁atas	-9.95823
ane	-9.95897
▁SrezWa	-9.95907
▁hu	-9.96336
▁deSa	-9.96548
▁laB	-9.9655
▁vya	-9.96805
pe	-9.9689
vit	-9.97018
ito	-9.97138
▁kaPa	-9.97336
▁tava	-9.97764
it	-9.97859
b	-9.97862
kRt	-9.9791
▁rakz	-9.97975
▁muc	-9.98034
▁sTa	-9.9805
tyA	-9.98245
▁jA	-9.98248
gam	-9.98274
▁mahI	-9.98587
▁diS	-9.9894
▁garBa	-9.99065
▁devatA	-9.9912
kI	-9.99411
▁puzpa	-9.99466
▁Ap	-9.99616
▁droNa	-9.99821
▁antara	-9.99938
▁ko	-10.0058
Anu	-10.0069
pad	-10.0071
▁Gora	-10.0094
hAra	-10.0094
▁kzIra	-10.0095
tAn	-10.0101
vid	-10.0103
▁param	-10.0124
▁saptan	-10.0145
▁praBu	-10.0156
ak	-10.0157
tar	-10.0158
▁nityam	-10.0199
gra	-10.0201
▁viDA	-10.0203
ScEva	-10.022
yan	-10.0221
tvaM	-10.0226
▁mAtR	-10.0231
▁upA	-10.0233
▁hetu	-10.0243
▁karma	-10.026
ste	-10.0261
yante	-10.0278
▁daNXa	-10.029
▁rAjya	-10.0297
NaH	-10.0306
ava	-10.031
▁tIrTa	-10.0314
ayA	-10.0323
yanti	-10.0323
iz	-10.0335
▁hy	-10.0346
loka	-10.036
▁praviS	-10.0366
▁kanyA	-10.0368
▁rAkzasa	-10.0376
▁ana	-10.0386
yata	-10.0395
Dara	-10.0406
deSa	-10.0429
▁mRtyu	-10.0462
▁vidyA	-10.048
▁gati	-10.0486
▁daSan	-10.0538
rAja	-10.0544
▁tattva	-10.0556
yena	-10.0598
▁hita	-10.0601
▁pada	-10.0604
▁idaM	-10.062
gni	-10.0622
▁bIja	-10.0631
▁Sakra	-10.0642
▁AKyA	-10.065
▁vrata	-10.0652
▁pura	-10.0666
vyA	-10.0681
▁dina	-10.0683
ScA	-10.0692
Kalu	-10.0695
▁kAraNa	-10.0711
▁kzip	-10.072
▁vasu	-10.0742
eti	-10.0761
▁arDa	-10.0771
▁kriyA	-10.0782
mar	-10.0794
▁pravac	-10.0804
w	-10.0806
▁avi	-10.082
▁ISvara	-10.0841
▁sidDi	-10.0852
Ava	-10.0855
▁tAvat	-10.0869
▁vat	-10.0879
▁ar	-10.0885
har	-10.0896
▁dah	-10.0907
▁BagavAn	-10.0925
zwA	-10.0928
▁tasmAd	-10.0933
NAM	-10.0933
▁tyaj	-10.0982
ras	-10.0988
▁pU	-10.1008
▁eza	-10.101
veda	-10.1017
eSvara	-10.1037
prA	-10.1039
▁dAna	-10.1051
▁giri	-10.1072
uH	-10.109
▁agra	-10.1137
cCa	-10.1168
cAra	-10.1185
▁Buj	-10.1189
▁Ka	-10.1198
jQA	-10.1222
bala	-10.1234
▁indriya	-10.125
▁Barata	-10.1263
▁praTama	-10.1273
vAsa	-10.1281
▁SIta	-10.1306
▁nAnA	-10.132
▁evA	-10.1327
▁pracC	-10.1333
▁syAt	-10.1338
▁loha	-10.1342
▁bAla	-10.1345
tAm	-10.1351
▁vRt	-10.1379
▁mRga	-10.1386
▁kzaya	-10.1414
jQa	-10.1456
▁BrAtR	-10.1474
Ama	-10.1477
▁hR	-10.1492
▁nR	-10.1517
▁apara	-10.152
▁ratna	-10.1533
▁tAM	-10.156
▁hara	-10.1582
▁mah	-10.1599
▁dakziNa	-10.1599
▁citra	-10.1615
▁Bavant	-10.162
▁pANXu	-10.1631
itvA	-10.1642
▁mAtra	-10.1657
▁hasta	-10.1659
▁cakra	-10.1688
▁maya	-10.1708
▁padma	-10.1725
▁ahar	-10.1763
▁sADu	-10.1785
Sva	-10.1787
sTA	-10.1798
gata	-10.18
▁amRta	-10.1802
SaH	-10.1807
▁uta	-10.1811
▁maDura	-10.1816
▁yama	-10.1849
▁svA	-10.1854
dRS	-10.1862
car	-10.1864
▁tEla	-10.1866
▁tap	-10.1878
jan	-10.1881
Sas	-10.1891
▁candra	-10.1904
▁mAMsa	-10.1907
▁pRTak	-10.1926
nta	-10.1928
▁dravya	-10.1929
Iya	-10.1945
▁arh	-10.1951
▁sU	-10.1953
▁ced	-10.1964
▁raNa	-10.1973
gu	-10.1988
▁viSeza	-10.1991
raM	-10.2028
▁pUrvam	-10.204
▁nAman	-10.2054
reNa	-10.2077
▁sarvaM	-10.208
▁aTA	-10.2082
tasya	-10.2085
▁uzNa	-10.2091
▁Bava	-10.21
▁lakzaNa	-10.2101
kar	-10.2104
▁pac	-10.211
ar	-10.2122
aNa	-10.2129
en	-10.2141
▁tezAM	-10.2196
anA	-10.22
vatI	-10.2206
▁mUtra	-10.2208
▁vahni	-10.2212
▁dIrGa	-10.2214
sva	-10.2218
kzA	-10.2232
Iti	-10.227
guNa	-10.2281
nti	-10.2297
ESca	-10.2311
▁BAryA	-10.2313
▁citta	-10.2316
yas	-10.2333
▁sTAna	-10.2358
tAni	-10.2367
▁tulya	-10.239
ASca	-10.2409
▁kaTaM	-10.2409
Ada	-10.241
▁pratya	-10.241
graha	-10.2422
▁Suci	-10.2425
▁ahaM	-10.2427
Ami	-10.246
varNa	-10.2462
rO	-10.247
NaM	-10.2475
▁AdA	-10.2487
▁liFga	-10.2492
▁cUrNa	-10.2519
ata	-10.2525
▁ivA	-10.2531
▁arjuna	-10.254
▁DAray	-10.2542
pI	-10.2554
vin	-10.2584
▁mAM	-10.2608
Sub	-10.2611
ANi	-10.2613
▁oM	-10.2628
▁Satru	-10.2631
ANAM	-10.2631
▁kroDa	-10.2648
Dan	-10.2656
Fg	-10.2661
▁mAna	-10.2675
▁astra	-10.2683
▁aMSa	-10.2686
▁mAyA	-10.2692
he	-10.2692
NXa	-10.2692
Ur	-10.2715
▁pArTiva	-10.2723
▁svAhA	-10.273
▁hRdaya	-10.2732
▁tAn	-10.2753
▁tAmra	-10.2776
▁sidDa	-10.2786
▁mitra	-10.2787
▁UrDva	-10.279
Ana	-10.2818
ite	-10.283
vaH	-10.2837
BUt	-10.2847
yO	-10.2851
Bav	-10.2869
▁nava	-10.2877
▁samyak	-10.2889
▁nihan	-10.2911
▁banD	-10.2912
▁sneha	-10.2925
▁mAsa	-10.2928
Sc	-10.293
ir	-10.2935
guN	-10.2951
samA	-10.2964
▁yuD	-10.2977
▁SrutvA	-10.2999
▁ram	-10.3002
▁Sveta	-10.3008
▁darSana	-10.3022
▁jvara	-10.3024
▁SuD	-10.3025
▁roga	-10.3031
▁RzaBa	-10.3032
smi	-10.3059
▁tAta	-10.3073
▁vijQA	-10.309
Ala	-10.3096
Av	-10.3119
▁tAra	-10.3123
Tem	-10.3154
kula	-10.3161
dam	-10.3161
▁tIkzNa	-10.3164
sama	-10.3167
▁vacas	-10.3209
dya	-10.3209
▁Soka	-10.321
vAda	-10.3212
▁Aditya	-10.3224
▁BI	-10.3234
▁laGu	-10.3238
pAta	-10.3244
AtmA	-10.3252
Bava	-10.3255
▁syAd	-10.3282
BRt	-10.3288
cara	-10.3292
ArTa	-10.3303
▁praBA	-10.3321
mad	-10.3334
▁mRd	-10.3342
BAva	-10.3379
▁Badra	-10.3387
▁Sam	-10.3388
ki	-10.3394
rU	-10.3397
▁sRj	-10.3403
po	-10.3408
▁duryoDana	-10.3409
pAd	-10.3415
▁sev	-10.3426
mO	-10.3448
▁nitya	-10.3459
▁parvata	-10.3463
banDa	-10.348
▁prI	-10.3499
▁alpa	-10.3503
IM	-10.3513
banD	-10.3535
han	-10.3539
Bavat	-10.354
Darm	-10.3543
F	-10.3555
▁vinA	-10.358
cca	-10.3609
▁ad	-10.3614
datta	-10.3618
rTa	-10.3627
doz	-10.365
▁tvayA	-10.3659
▁kalpa	-10.3668
▁vI	-10.3678
▁hya	-10.3691
▁SUra	-10.3692
▁snA	-10.37
▁yasya	-10.3705
▁dRXa	-10.3706
ham	-10.371
▁tvA	-10.3723
viDa	-10.3723
putra	-10.3736
stA	-10.3736
▁akza	-10.374
par	-10.374
▁vah	-10.3755
▁snigDa	-10.3777
Ir	-10.3784
var	-10.3808
▁jap	-10.3823
▁BR	-10.3839
▁pitAmaha	-10.384
ala	-10.3841
Byo	-10.385
jo	-10.3862
kzu	-10.3885
▁loke	-10.3893
pUrva	-10.3896
ray	-10.3913
Uza	-10.3919
▁nadI	-10.392
▁pattra	-10.3925
tvam	-10.3961
aga	-10.3961
▁amla	-10.3967
zi	-10.3968
▁sampra	-10.397
▁prIti	-10.3977
▁BA	-10.3997
GAta	-10.4005
▁yoni	-10.4035
kena	-10.4043
▁marut	-10.4051
yed	-10.4082
▁pre	-10.4084
nda	-10.4086
▁avAp	-10.4087
gatA	-10.4098
▁gaja	-10.411
▁nu	-10.4123
▁saMjaya	-10.4128
▁samud	-10.4137
mRt	-10.415
pAla	-10.4156
ku	-10.416
▁Beda	-10.4162
likA	-10.4167
▁mano	-10.4181
▁BUyas	-10.4194
varta	-10.4203
▁aBya	-10.4207
▁SAstra	-10.4217
Qja	-10.4223
▁nE	-10.4269
▁puMs	-10.4273
Nu	-10.4283
vak	-10.4285
▁siD	-10.43
prati	-10.4309
▁prakRti	-10.4321
tEr	-10.4334
Nam	-10.4334
▁SUla	-10.4336
kU	-10.434
▁utTA	-10.434
▁payas	-10.4345
▁zaz	-10.4347
▁pANi	-10.4348
▁SaMs	-10.4357
▁SaFKa	-10.436
mAna	-10.4361
nena	-10.4379
▁jagant	-10.4388
▁prajApati	-10.4391
ann	-10.4391
▁asura	-10.4392
▁jaya	-10.4405
▁bANa	-10.4418
tre	-10.4431
▁puwa	-10.4436
▁prayA	-10.4443
▁Seza	-10.4445
▁Adya	-10.4447
▁mati	-10.4452
▁anA	-10.4475
nyA	-10.4479
tman	-10.4508
▁kawu	-10.4512
▁pIta	-10.4518
vana	-10.452
▁jIva	-10.453
▁gir	-10.4534
rTaM	-10.4554
▁heman	-10.4564
▁dakziNA	-10.4572
K	-10.4583
enA	-10.4584
▁vaDa	-10.4591
▁pR	-10.461
▁samudra	-10.4619
yor	-10.4635
▁maNi	-10.4667
smE	-10.468
▁varuNa	-10.468
anta	-10.4685
Bra	-10.4689
▁yena	-10.4693
▁Sukra	-10.4714
pate	-10.4714
▁uB	-10.4731
BUta	-10.4744
SiK	-10.475
▁dIp	-10.4759
▁pu	-10.4764
▁cApi	-10.4771
ho	-10.4774
miti	-10.4779
▁nIla	-10.4792
▁svar	-10.4794
vart	-10.4818
kAn	-10.4831
kzi	-10.4831
raTa	-10.4844
▁paScAt	-10.4848
▁BAz	-10.4862
▁upe	-10.4865
▁SilA	-10.4873
▁kzaNa	-10.4876
▁ba	-10.4876
▁Bid	-10.4879
aSca	-10.4882
tena	-10.4885
sra	-10.4898
▁c	-10.4898
pAt	-10.4907
▁Bakti	-10.4914
▁azwan	-10.4914
▁yaSas	-10.4919
▁BImasena	-10.492
kASa	-10.4929
▁cit	-10.4933
ba	-10.4935
gar	-10.4936
varN	-10.4937
grah	-10.4967
▁kva	-10.4971
▁Cid	-10.4978
▁mRdu	-10.498
lok	-10.4986
NAm	-10.5007
ze	-10.5014
▁pratizWA	-10.5016
sti	-10.5021
▁stu	-10.5032
▁vAma	-10.504
gaN	-10.5049
▁suvarNa	-10.506
kzI	-10.5069
iti	-10.5084
zwi	-10.5086
▁cintay	-10.5087
vam	-10.5093
cI	-10.5094
▁pradA	-10.5103
tap	-10.5105
▁gadA	-10.5106
▁tasmin	-10.5109
Darma	-10.5116
▁kAm	-10.5123
▁yuga	-10.5125
nna	-10.513
viS	-10.5131
jAn	-10.5135
Eka	-10.5154
▁Sastra	-10.516
pu	-10.5172
▁manuzya	-10.5175
▁mArga	-10.5178
vah	-10.5181
▁vRza	-10.5195
▁kazAya	-10.5203
doza	-10.5239
▁dvitIya	-10.5244
▁DyA	-10.5253
▁pala	-10.5259
jit	-10.5261
pal	-10.5269
meva	-10.528
▁Gna	-10.5299
AmAsa	-10.5301
▁pAtra	-10.5304
cAr	-10.5309
hitA	-10.5328
▁vastra	-10.5333
kalp	-10.5337
▁svarNa	-10.5339
vac	-10.5344
kRta	-10.5364
tur	-10.5379
dev	-10.54
▁yatas	-10.5403
▁vatsa	-10.5411
▁rAGava	-10.5417
TA	-10.5419
▁prasAda	-10.5422
▁krama	-10.5434
▁rAtri	-10.5436
api	-10.5441
rAtra	-10.5443
▁mokza	-10.5449
▁sahita	-10.545
▁SudDa	-10.5453
buD	-10.5458
▁manda	-10.5461
vAha	-10.5463
smin	-10.5469
yAni	-10.5472
dru	-10.5474
mahA	-10.5477
▁ganDarva	-10.5482
sU	-10.5498
ato	-10.55
kAma	-10.5504
diS	-10.5509
▁rakzas	-10.552
patti	-10.5523
▁siMha	-10.5543
▁kzatriya	-10.5546
▁sEnya	-10.5554
▁ugra	-10.5564
BAz	-10.557
▁pravRt	-10.5579
▁yaT	-10.5585
▁zaX	-10.5601
ABi	-10.5601
▁ityAdi	-10.5607
▁mAm	-10.5609
varga	-10.5612
pAda	-10.5613
ataH	-10.5614
▁DAtu	-10.5617
Asa	-10.5622
▁sAra	-10.5635
endra	-10.5635
zaN	-10.564
cay	-10.5646
▁kAray	-10.5656
▁jagat	-10.5657
nAd	-10.5662
▁Baj	-10.5674
▁kaTA	-10.5683
AnAm	-10.5686
▁gaFgA	-10.5722
▁Ar	-10.5737
▁tamas	-10.5748
▁traya	-10.5758
yAna	-10.577
yur	-10.5772
tezu	-10.5774
▁rajas	-10.5788
stri	-10.5796
▁sUkzma	-10.5805
▁darSay	-10.5819
MSa	-10.582
▁vRkza	-10.5821
▁vega	-10.5823
vAr	-10.5829
ama	-10.5832
vaS	-10.5857
▁jAyate	-10.5859
▁vaD	-10.5869
▁rAvaNa	-10.5869
▁kRzNA	-10.5871
nityaM	-10.5877
▁san	-10.5877
Bram	-10.5896
gama	-10.5898
yAma	-10.5912
▁niSA	-10.5914
ayo	-10.5919
yamAna	-10.5919
kE	-10.5922
BI	-10.593
tuM	-10.5934
▁etat	-10.5937
▁mala	-10.5939
tAra	-10.5941
Ita	-10.5949
BAg	-10.5949
▁pakza	-10.5965
tIr	-10.5991
▁sampad	-10.6006
▁aha	-10.6009
▁vyADi	-10.601
▁tv	-10.6029
▁ganDaka	-10.6043
yEr	-10.6045
▁ASu	-10.6057
▁AsTA	-10.6058
▁tvam	-10.6061
cit	-10.6064
▁dEva	-10.608
▁hiraNya	-10.608
mba	-10.6091
▁paraM	-10.6092
▁pratI	-10.6103
▁pramANa	-10.6116
▁pr	-10.6127
pAp	-10.6141
▁upAs	-10.6142
▁lavaNa	-10.6151
▁DRtarAzwra	-10.6153
▁vRtti	-10.6157
nO	-10.6189
▁viSvA	-10.6201
▁duz	-10.6206
rAj	-10.6209
jya	-10.6245
▁kAQcana	-10.6251
▁BartR	-10.6251
yut	-10.6254
▁sad	-10.626
▁vAra	-10.6264
▁ASrama	-10.6268
▁tila	-10.6285
▁aTavA	-10.6286
bal	-10.629
uk	-10.6306
▁niH	-10.6308
▁Ayus	-10.6308
▁DanaMjaya	-10.6316
▁taTEva	-10.6324
sad	-10.6325
antI	-10.6328
▁viviDa	-10.6332
▁arka	-10.6344
py	-10.6346
▁AyA	-10.635
▁lakzmaNa	-10.6351
parA	-10.6356
▁kalA	-10.6369
▁mud	-10.6377
▁mat	-10.638
Bed	-10.6389
karaNa	-10.6393
karma	-10.6394
▁yogin	-10.6402
tum	-10.6414
mUla	-10.6418
▁dvAra	-10.6423
▁varjay	-10.6427
▁kzatra	-10.6431
▁ke	-10.6432
▁manu	-10.6435
▁jIvita	-10.6435
dAna	-10.6452
ES	-10.6461
▁tanu	-10.6461
hu	-10.6465
vaM	-10.6471
zW	-10.648
anaM	-10.6483
▁kuzWa	-10.6488
▁Aha	-10.6496
▁hRd	-10.6513
▁sItA	-10.6514
▁kowi	-10.6522
Im	-10.6524
▁jQa	-10.655
zw	-10.6556
▁Bakzay	-10.6557
▁vizaya	-10.6562
▁Dam	-10.6563
nAn	-10.6579
jAta	-10.658
cUrNa	-10.6582
▁var	-10.659
▁udaka	-10.6592
tri	-10.6594
▁aja	-10.6603
▁vRdDa	-10.6607
yanta	-10.6609
val	-10.6619
kaw	-10.6631
vaha	-10.6633
pAka	-10.6634
▁saMjQA	-10.6641
▁kAle	-10.6642
▁moha	-10.6649
kzip	-10.665
yukta	-10.6663
ty	-10.6676
Aha	-10.6677
▁Bavizyat	-10.6681
laM	-10.6685
vAra	-10.6698
▁kAnta	-10.6702
▁kila	-10.6714
▁bali	-10.6716
▁DI	-10.6722
▁nira	-10.6723
▁jarA	-10.6725
Aga	-10.6731
▁kumAra	-10.674
▁cE	-10.674
anI	-10.674
rakz	-10.6752
▁Sar	-10.6753
rog	-10.6754
▁namaH	-10.6756
▁mu	-10.6764
▁janman	-10.6771
mam	-10.6774
viz	-10.6778
Sata	-10.6782
▁brahmA	-10.6784
▁BAvay	-10.6788
cid	-10.6791
Ati	-10.6793
▁tikta	-10.6796
tir	-10.68
vayaM	-10.6802
▁vAnara	-10.6803
raNa	-10.6816
▁uBaya	-10.6827
budD	-10.6842
vAhana	-10.6847
▁vyaD	-10.6854
▁buD	-10.6856
▁tala	-10.686
▁surA	-10.687
yuH	-10.688
hI	-10.6889
▁senA	-10.6898
▁sTApay	-10.691
▁pRzWa	-10.6911
▁abravIt	-10.6913
yatAm	-10.6917
▁gRh	-10.6932
mAr	-10.6942
▁aDika	-10.6945
▁kruD	-10.6947
Te	-10.6952
▁vy	-10.6958
viza	-10.696
▁prAh	-10.6972
ruh	-10.6975
▁toya	-10.6975
▁prajQApAramitA	-10.6982
▁vAsudeva	-10.6982
aQj	-10.6995
Beda	-10.6997
▁suhRd	-10.7003
vrata	-10.7009
mb	-10.7019
hR	-10.7041
▁yava	-10.7043
pada	-10.7049
sidD	-10.7051
▁jAta	-10.7058
yin	-10.7069
▁dviz	-10.7079
▁DImat	-10.7104
raH	-10.7117
vR	-10.712
tikA	-10.7131
Suz	-10.7142
Dar	-10.7149
▁SRNu	-10.7187
rUpaM	-10.7188
▁avasTA	-10.719
▁dvaya	-10.7191
ByAM	-10.7201
FgA	-10.7202
kAla	-10.7206
kRtya	-10.7215
▁dAha	-10.7236
▁apA	-10.7236
rUpA	-10.7256
vane	-10.7258
▁raNe	-10.7262
▁vaSa	-10.7273
▁sah	-10.7275
▁ekA	-10.7281
▁deve	-10.7289
kanda	-10.7289
asi	-10.7305
▁mada	-10.7306
▁mahArAja	-10.7307
▁AkASa	-10.7317
ut	-10.7325
pUr	-10.7328
jyA	-10.7329
▁nArada	-10.7338
tve	-10.7344
▁ambu	-10.7349
▁Danus	-10.7357
sAr	-10.7365
▁tRtIya	-10.7368
▁prajQA	-10.739
hRt	-10.7398
▁hema	-10.7407
▁BRSam	-10.7416
▁sADay	-10.7422
▁DR	-10.7426
▁Basman	-10.7428
anam	-10.7432
AByAM	-10.7443
▁SEla	-10.7455
▁ete	-10.747
▁taT	-10.7471
▁prakASa	-10.7475
▁boDisattva	-10.748
Saya	-10.7496
kriyA	-10.7514
viDA	-10.7523
▁maheSvara	-10.7524
▁maNXala	-10.7533
kasya	-10.7538
▁cakzus	-10.7543
▁snAna	-10.7549
maT	-10.7551
▁marday	-10.7553
kra	-10.7554
maha	-10.7556
▁haya	-10.7568
▁saBA	-10.7568
ante	-10.7571
ji	-10.7575
▁asya	-10.7588
▁Sukla	-10.7592
BAv	-10.7597
KyA	-10.7605
▁janay	-10.7633
▁svayaM	-10.7636
▁uda	-10.7639
▁dattvA	-10.7643
upa	-10.7646
mAtra	-10.7656
▁viz	-10.7658
▁gatvA	-10.7671
yuktA	-10.7674
▁nArAyaNa	-10.768
tIrTa	-10.7681
saFga	-10.7685
KA	-10.7687
▁maDye	-10.7695
zva	-10.7696
▁pUrv	-10.7704
cakz	-10.772
▁pAra	-10.7721
Apa	-10.7728
▁kzetra	-10.773
yataH	-10.7741
▁balA	-10.7744
▁kO	-10.7752
▁upari	-10.7753
wA	-10.7754
ndra	-10.7763
▁sattama	-10.7767
▁mUzA	-10.7768
▁sparSa	-10.7783
▁dru	-10.7785
▁asi	-10.7789
▁dEtya	-10.7796
Atma	-10.7801
sarga	-10.7801
▁mAnuza	-10.7859
▁niS	-10.7859
▁bRhaspati	-10.7869
hAr	-10.7874
dRzw	-10.7881
▁tvac	-10.7888
▁kAya	-10.7891
▁anyonya	-10.7895
▁Gana	-10.7895
▁drava	-10.7896
akA	-10.7903
manas	-10.7904
lepa	-10.7912
yayO	-10.7925
mud	-10.7931
▁piNXa	-10.7936
Un	-10.7942
tan	-10.7965
▁anvita	-10.8004
▁rud	-10.8007
maDye	-10.8008
ADi	-10.8019
▁id	-10.8037
▁aBiDA	-10.8042
iNI	-10.805
▁nArI	-10.8057
tv	-10.8072
▁daDi	-10.8075
dAru	-10.8077
▁Sruta	-10.8079
SrezWa	-10.8085
▁vyAKyA	-10.8094
▁AhAra	-10.8102
zWa	-10.8107
▁apaha	-10.811
▁karot	-10.8113
▁kIrti	-10.812
liK	-10.8124
vAd	-10.8124
▁pUjA	-10.8125
mbu	-10.8131
▁Arta	-10.8137
asva	-10.814
niz	-10.8146
▁vraj	-10.8152
▁samara	-10.8156
▁vRtra	-10.8159
Ac	-10.8164
▁praDAna	-10.8168
dAn	-10.8177
▁rAga	-10.8178
laka	-10.8182
▁harza	-10.8185
yantra	-10.8193
▁sveda	-10.8202
stadA	-10.8204
muKA	-10.8205
▁un	-10.8208
bIja	-10.8216
nAya	-10.8217
▁Rtu	-10.8219
tvAt	-10.8223
Es	-10.8225
▁mahAdeva	-10.8235
▁meGa	-10.8242
yuta	-10.8243
▁sarvam	-10.8244
Fka	-10.8247
vartay	-10.8257
▁svasti	-10.826
aye	-10.8267
▁rA	-10.8272
▁dAnava	-10.8276
▁sAD	-10.8278
▁saMvatsara	-10.8282
mUl	-10.8293
raka	-10.8299
sara	-10.8307
▁nirA	-10.8309
▁bRhat	-10.8315
▁Atma	-10.8321
▁pArSva	-10.8324
Qc	-10.8329
▁SIla	-10.8333
▁kzAra	-10.8338
▁SUdra	-10.8341
vAsin	-10.8347
izwa	-10.8349
kRtA	-10.835
yaka	-10.8364
ul	-10.8376
▁aneka	-10.8381
▁vAsa	-10.8384
rDa	-10.8387
ganDa	-10.8394
mahe	-10.8396
▁patnI	-10.8397
▁aDas	-10.8397
▁pArada	-10.84
▁keSava	-10.8401
kRte	-10.8413
▁ved	-10.8418
nte	-10.8421
▁sarvAn	-10.8428
▁sAgara	-10.8429
▁netra	-10.8439
rAtr	-10.8442
hvA	-10.8459
avya	-10.8463
sv	-10.8468
▁niDA	-10.8473
▁paQcama	-10.848
PalA	-10.848
▁yatna	-10.8493
▁agne	-10.8499
▁vAja	-10.85
▁tvAM	-10.8511
▁parya	-10.8516
kRti	-10.8516
▁akzara	-10.8525
atya	-10.8548
▁upama	-10.8551
yeta	-10.8551
▁anyaTA	-10.8556
▁ayaM	-10.8563
kawa	-10.8569
▁saMni	-10.8573
karmaN	-10.8575
asta	-10.8576
viMSati	-10.8581
▁vESampAyana	-10.8584
▁SI	-10.8587
▁matsya	-10.8593
▁sahasA	-10.8599
▁lip	-10.8603
atA	-10.8603
tyAg	-10.8605
ruci	-10.8609
cCA	-10.8609
▁KyA	-10.861
ntA	-10.862
trE	-10.8622
▁rAj	-10.8626
miSra	-10.863
bravIt	-10.8638
▁vini	-10.8639
praBa	-10.8647
▁vRD	-10.8657
rava	-10.8658
▁viBu	-10.866
▁kuryAt	-10.8675
▁samBU	-10.8682
mAnuz	-10.8702
varz	-10.8715
SRFg	-10.8724
mBa	-10.8729
▁sutA	-10.8736
▁SaraNa	-10.8737
boDa	-10.8739
avi	-10.8741
sattv	-10.8742
▁Apad	-10.8744
▁Asana	-10.8753
▁pUrNa	-10.8765
▁tAm	-10.8768
iBiH	-10.8769
▁rUkza	-10.8774
▁mahAn	-10.8784
gamana	-10.8786
▁samprAp	-10.8788
▁samantata	-10.881
nAga	-10.8814
mAra	-10.8818
anu	-10.8833
Say	-10.8843
latA	-10.8851
▁aBra	-10.8852
▁nija	-10.8854
jQAna	-10.8854
kRz	-10.8855
nIya	-10.8856
zwu	-10.8862
veSa	-10.8865
vartate	-10.8872
▁mAnasa	-10.8877
gataM	-10.8882
sura	-10.8889
▁Salya	-10.8889
▁vRdDi	-10.8891
veDa	-10.8897
yAya	-10.8899
nAt	-10.8903
lakz	-10.8914
▁ci	-10.8919
▁vAri	-10.8921
▁kanaka	-10.8926
daM	-10.8928
▁sahA	-10.8931
▁hima	-10.8942
nAti	-10.8942
▁vyAsa	-10.8948
▁van	-10.896
▁muhur	-10.8961
Fk	-10.8965
dvIpa	-10.8967
▁ojas	-10.8967
▁aTo	-10.8967
yU	-10.8971
▁Atmaka	-10.8971
rAga	-10.8974
▁keSa	-10.8978
▁ucyate	-10.898
tta	-10.8984
▁Sizya	-10.8991
▁prAtar	-10.9001
▁vRtta	-10.9004
jay	-10.9013
mala	-10.9014
▁dvAdaSan	-10.9017
▁Bikzu	-10.9021
IkR	-10.9029
▁paSya	-10.9031
raB	-10.9043
jaH	-10.9046
▁atI	-10.9046
▁samAna	-10.9057
Qjana	-10.9065
▁etA	-10.9072
rAn	-10.9076
ruc	-10.9086
yamAnA	-10.909
kzaNa	-10.9092
▁Bojana	-10.9093
inaH	-10.9093
roDa	-10.9096
statra	-10.9098
vRtta	-10.9104
▁zaw	-10.911
▁paraspara	-10.9112
BayA	-10.9117
▁Ajya	-10.9118
veg	-10.9123
▁sEnDava	-10.9125
balA	-10.9128
▁yakza	-10.914
▁rasAyana	-10.9143
MSu	-10.9145
ntaM	-10.9146
▁spRS	-10.915
▁gacCa	-10.9155
▁nABi	-10.9155
▁nivRt	-10.9174
gara	-10.9178
▁danta	-10.9182
▁kuSala	-10.9187
▁pUrvavat	-10.9188
▁jAti	-10.919
▁praSaMs	-10.9192
▁UrDvam	-10.9197
kzepa	-10.9202
DAna	-10.9203
▁dRzwi	-10.9209
sy	-10.9212
SaMs	-10.9214
▁svap	-10.9218
dur	-10.9222
mukta	-10.9224
▁SAnti	-10.9227
▁kapi	-10.9229
▁vyAGra	-10.9238
▁graha	-10.9238
sTAna	-10.9242
kAl	-10.9244
SAl	-10.9256
cezw	-10.9257
▁tatrA	-10.9257
▁kramAt	-10.9275
▁Boga	-10.9278
rAt	-10.928
vizwa	-10.9282
Sez	-10.9287
W	-10.9301
vap	-10.9311
anena	-10.9317
▁Baved	-10.9319
Fgu	-10.9319
yAs	-10.9324
▁niyam	-10.9328
is	-10.933
cala	-10.9331
yuj	-10.9334
vAh	-10.934
▁pakva	-10.9349
rUp	-10.9351
tana	-10.9355
▁pAvaka	-10.9358
vRtti	-10.936
Dana	-10.9361
rEr	-10.9365
▁Ananda	-10.9372
rha	-10.9372
▁ananta	-10.9374
mantra	-10.9376
Bog	-10.9379
pann	-10.9384
rud	-10.9384
Wa	-10.9389
▁Sakya	-10.9398
ntar	-10.9401
▁kvacid	-10.9403
kul	-10.9403
darSana	-10.9412
BAga	-10.9413
coday	-10.9415
bAh	-10.9417
▁vijQAna	-10.9425
▁janArdana	-10.9428
▁svaBAva	-10.9432
▁kAr	-10.9434
raNA	-10.9439
rTe	-10.9442
▁jR	-10.945
tat	-10.9456
▁AjQA	-10.946
priya	-10.946
▁pAna	-10.9472
aFga	-10.9474
▁sahas	-10.9475
krama	-10.9475
▁praty	-10.9476
para	-10.9479
dAr	-10.9479
▁kAsa	-10.9482
▁purANa	-10.9489
DAra	-10.9494
pAna	-10.9501
darSa	-10.9501
▁AcArya	-10.9502
puro	-10.9508
vant	-10.9514
sIt	-10.9517
izWa	-10.9517
nAma	-10.9518
▁ani	-10.9521
▁sarpa	-10.9529
ganDA	-10.9529
▁puz	-10.9535
Buj	-10.9536
▁namo	-10.9545
sRj	-10.9546
▁banDa	-10.9547
▁sAman	-10.9555
▁azwa	-10.9555
▁ce	-10.9575
▁pUrvaM	-10.9583
▁ne	-10.9583
▁Druva	-10.9585
▁jyezWa	-10.9593
badDa	-10.9594
▁DUma	-10.9597
▁dAra	-10.96
nRt	-10.9604
cUrN	-10.9604
▁vraNa	-10.9613
gad	-10.9615
lu	-10.9615
▁grAma	-10.9618
▁banDu	-10.963
▁Rta	-10.9632
▁dUra	-10.9632
▁hRz	-10.9633
▁vasizWa	-10.9663
Sar	-10.9664
SEl	-10.9665
mita	-10.9666
▁tac	-10.9666
kAFkz	-10.9668
▁BavAn	-10.967
cana	-10.9671
▁kratu	-10.9673
atAM	-10.9673
manA	-10.9673
DarA	-10.9673
sAda	-10.9677
▁vaMSa	-10.968
vIkz	-10.9681
ada	-10.9682
guh	-10.9683
tayA	-10.9683
▁haMsa	-10.9685
mun	-10.9688
▁mAnava	-10.969
vet	-10.9694
nAni	-10.9696
dad	-10.9696
padA	-10.9702
puzpa	-10.9703
▁upAya	-10.9714
▁cetas	-10.9718
vasA	-10.9725
▁Suc	-10.9727
itum	-10.9733
Baya	-10.9738
▁gata	-10.9743
▁sadRSa	-10.9757
▁nAsti	-10.9766
▁asaM	-10.9767
▁vAg	-10.9772
▁vAjin	-10.9777
▁udara	-10.9788
▁sakala	-10.9795
▁utsRj	-10.9799
il	-10.98
kur	-10.9801
AMSca	-10.9801
DAr	-10.9804
ic	-10.9806
▁kopa	-10.9808
▁saH	-10.9812
zya	-10.9829
caya	-10.9842
▁ari	-10.9855
▁vAsas	-10.9855
▁av	-10.9861
▁prAya	-10.9862
irA	-10.9866
▁BUri	-10.9868
▁pad	-10.9878
jita	-10.9882
Bar	-10.9884
▁suK	-10.9887
▁yan	-10.9889
▁Druvam	-10.989
rAkzas	-10.9902
raNe	-10.9906
▁viDAna	-10.9908
iva	-10.9908
jIv	-10.9911
▁SoNita	-10.9934
▁pAka	-10.9934
▁Buja	-10.9943
▁mUrDan	-10.9945
▁rasA	-10.9953
▁mahABAga	-10.9955
gRhya	-10.9962
▁ASri	-10.9965
▁pratipad	-10.9967
guru	-10.9984
cal	-10.9986
▁dakza	-10.9986
duHK	-10.9988
▁Bakta	-11.0007
▁Dvaja	-11.0023
▁nagara	-11.0025
budDi	-11.0033
▁Arya	-11.0039
karmA	-11.005
▁tadvat	-11.0055
ayaH	-11.0055
nanda	-11.007
pana	-11.0075
▁viSezata	-11.0079
zyAmi	-11.0081
▁samare	-11.0081
asaM	-11.0085
▁saMyuj	-11.0094
▁tuz	-11.0095
uktaM	-11.0097
▁anila	-11.0099
▁kzipram	-11.0116
▁sArDam	-11.0121
▁raT	-11.0127
▁sarvezA	-11.0133
▁du	-11.0139
jaM	-11.0146
varDana	-11.0147
▁pAtay	-11.0147
kal	-11.0152
▁tvar	-11.0153
nayana	-11.0154
▁yantra	-11.0163
▁aBy	-11.0163
rAma	-11.0169
ayet	-11.017
▁aSvin	-11.0177
roga	-11.018
rEH	-11.0181
vala	-11.0182
▁ISa	-11.0182
▁vyAp	-11.0185
Bid	-11.019
▁buDa	-11.0202
▁antarikza	-11.0205
pAn	-11.0214
▁prAN	-11.0222
▁tO	-11.0229
▁prada	-11.023
▁yas	-11.0233
▁prekz	-11.0239
▁asTi	-11.0248
mAMs	-11.0249
▁cira	-11.0254
▁sarvatra	-11.0256
kzata	-11.0261
▁yukta	-11.0261
▁gulma	-11.0265
▁sanAtana	-11.0274
▁BRgu	-11.0277
▁prayatna	-11.0279
▁samBava	-11.0282
▁upasTA	-11.0283
▁vayas	-11.0288
▁caturTa	-11.0301
▁nipat	-11.0302
tizWa	-11.0303
aTa	-11.0306
tavya	-11.031
banDana	-11.0311
▁kOnteya	-11.0311
▁adButa	-11.0313
tyarTa	-11.0329
yAmAsa	-11.0331
avaH	-11.0335
▁Acar	-11.0335
▁AkAra	-11.0337
▁anva	-11.0343
karza	-11.0355
▁svAdu	-11.036
▁vaktra	-11.0361
▁Sreyas	-11.0361
▁brAhmaNA	-11.037
▁vikrama	-11.0375
liFg	-11.0378
▁jval	-11.0378
Uz	-11.0385
▁muhUrta	-11.0392
▁Baga	-11.0393
▁kartR	-11.0394
mas	-11.0408
gate	-11.0414
▁pRTu	-11.0422
▁DyAna	-11.0428
yAva	-11.0429
▁same	-11.0431
yEva	-11.0431
▁SIGra	-11.0431
BUti	-11.0432
tsa	-11.0434
trANi	-11.0438
▁budDa	-11.0442
▁Candas	-11.0452
rANi	-11.0456
▁nyas	-11.0473
vAk	-11.0476
ketu	-11.0483
deS	-11.0486
▁yam	-11.0487
▁samanvita	-11.0492
▁vand	-11.0493
bAl	-11.0496
sTi	-11.0496
▁balavat	-11.0497
tE	-11.0502
▁yuta	-11.0506
vIra	-11.0507
▁anDa	-11.0509
ira	-11.0509
▁aDI	-11.0521
▁kaNWa	-11.0523
▁sAtyaki	-11.0527
▁BAra	-11.0529
karNa	-11.053
▁ekEka	-11.053
▁lokA	-11.053
DAtu	-11.0538
MSca	-11.0539
▁SrAdDa	-11.0539
kAr	-11.0551
▁Rc	-11.0552
pAra	-11.0557
▁SaMkara	-11.0562
▁ravi	-11.0566
varNA	-11.0567
▁vRz	-11.0568
maDu	-11.0572
lpa	-11.0572
▁narADipa	-11.0578
muc	-11.0582
▁aham	-11.0585
hata	-11.0589
▁nand	-11.0592
▁sTira	-11.0597
▁Sruti	-11.0599
▁praBAva	-11.06
eSa	-11.0601
▁kRtsna	-11.0604
karN	-11.0608
▁kzi	-11.0619
▁aBAva	-11.0622
eBya	-11.0627
▁SradDA	-11.0628
vIrya	-11.0634
▁muh	-11.0644
▁Sikz	-11.0645
uka	-11.0647
▁samaya	-11.0652
▁kRtA	-11.0668
deha	-11.0669
daNX	-11.068
nar	-11.0683
paTa	-11.0692
▁saMDi	-11.0692
Siro	-11.0698
▁salila	-11.0702
▁CAyA	-11.0707
pANi	-11.0709
Gaw	-11.0713
▁kiMcid	-11.0716
pattr	-11.0722
▁udDR	-11.0723
rTA	-11.0724
kala	-11.0725
ezv	-11.0726
raja	-11.0727
▁mAkzika	-11.0728
vApa	-11.0733
BUzaNa	-11.0741
wI	-11.0744
▁aDarma	-11.0747
▁nikzip	-11.0749
cin	-11.0753
upA	-11.0755
nopa	-11.0757
ny	-11.077
▁dRzwa	-11.0773
▁nASa	-11.0777
BUtA	-11.0777
uc	-11.0786
▁kRcCra	-11.0791
▁mAruta	-11.0792
vikalpa	-11.0816
sahasrAN	-11.0828
laB	-11.0834
▁puru	-11.0835
▁vipula	-11.084
Bavan	-11.084
▁AviS	-11.0844
kArin	-11.0847
gRh	-11.0861
▁gatA	-11.0865
nye	-11.087
Qj	-11.0874
▁Srama	-11.0878
▁kuSa	-11.0879
▁kevala	-11.0881
SvA	-11.0887
grA	-11.089
▁visRj	-11.0894
gat	-11.0899
Goza	-11.0907
▁karaNa	-11.0922
karA	-11.0926
▁saMsTA	-11.0929
▁yojay	-11.0929
tamo	-11.0934
▁aDyAya	-11.094
▁kadAcid	-11.0941
▁Kara	-11.0947
▁mAtA	-11.0953
▁muKya	-11.0954
yogA	-11.096
▁sita	-11.096
hU	-11.0965
▁saKi	-11.0965
▁martya	-11.0968
▁yAc	-11.0971
pura	-11.0971
▁sarasvatI	-11.0977
kta	-11.0983
▁varA	-11.0986
▁SvAsa	-11.0986
▁Su	-11.0989
▁gAtra	-11.0992
lya	-11.0994
▁indu	-11.0998
aNA	-11.1001
▁nRpati	-11.1001
▁apra	-11.1002
▁sOmya	-11.1012
drava	-11.1012
▁dvAdaSa	-11.1012
▁mUrti	-11.1021
Sat	-11.1023
stava	-11.1029
▁sarpis	-11.103
Sru	-11.103
▁yAvad	-11.1037
▁havya	-11.1037
NXI	-11.1038
▁Slezman	-11.1046
▁kumBa	-11.1047
▁nimitta	-11.1051
▁vinASa	-11.1052
Etad	-11.1054
▁AvR	-11.1057
yana	-11.1059
kzIr	-11.1063
hIna	-11.1072
▁avyakta	-11.1077
sattama	-11.109
AMsi	-11.1093
antaM	-11.1101
lABa	-11.1101
rz	-11.1102
Anta	-11.1102
zyati	-11.1103
tvAd	-11.111
▁pitA	-11.111
stva	-11.1112
rasA	-11.1113
tIkzN	-11.1115
▁vaFga	-11.1123
▁paQcA	-11.113
▁mAtrA	-11.1131
▁paramA	-11.1131
waka	-11.1135
kUwa	-11.1137
▁Bagavan	-11.1156
kalpa	-11.1156
jIva	-11.1157
▁vApi	-11.1158
ottara	-11.1159
▁divA	-11.1166
duzw	-11.117
▁kala	-11.118
Soza	-11.1181
▁ukta	-11.1185
dara	-11.1199
Ev	-11.1209
▁yAma	-11.1215
▁cApa	-11.1217
marda	-11.1218
▁kuntI	-11.1218
veza	-11.122
viBAga	-11.1221
▁aho	-11.1223
▁dama	-11.124
vata	-11.1241
zWA	-11.1244
deh	-11.1245
▁utpad	-11.1246
▁dAruNa	-11.1248
▁vihA	-11.1254
pAday	-11.1255
▁triPalA	-11.1257
InAM	-11.1258
asa	-11.126
▁jihvA	-11.1262
▁anyatra	-11.1264
▁BUtvA	-11.127
▁AnI	-11.1286
sId	-11.1295
▁praNam	-11.1296
enEva	-11.1298
▁saMKyA	-11.1301
▁saMGa	-11.1302
▁pavitra	-11.1307
piNX	-11.131
▁asat	-11.1314
▁rAzwra	-11.1318
▁saMs	-11.1323
AMS	-11.1325
▁pratyakza	-11.1327
pawa	-11.1331
kAm	-11.1339
mAni	-11.1347
▁tIvra	-11.1363
▁ruD	-11.1373
darS	-11.1375
▁SudDi	-11.1378
▁vo	-11.1379
vrat	-11.1385
nAg	-11.1387
▁has	-11.1398
▁saras	-11.1401
mUr	-11.1408
▁dIpana	-11.1415
▁sugrIva	-11.1416
grAm	-11.1416
nandana	-11.1418
ura	-11.1422
▁dve	-11.1422
▁priyA	-11.1425
▁juz	-11.1427
▁tE	-11.1427
▁maraNa	-11.1429
mucyate	-11.143
▁vyaT	-11.1431
ktA	-11.144
▁rati	-11.1445
▁pratigrah	-11.1447
▁kRpa	-11.1448
▁Bo	-11.1448
▁vAsava	-11.1449
▁balin	-11.146
yatAM	-11.1466
tayo	-11.1468
▁Atmaja	-11.1468
gati	-11.1469
▁manasA	-11.1478
▁samasta	-11.1479
▁DAnya	-11.1487
▁jit	-11.1491
sADya	-11.1493
▁lakzmI	-11.1508
Sana	-11.151
▁sAkzAt	-11.1511
zv	-11.1512
vidyA	-11.1514
tantra	-11.152
Gna	-11.1526
ryA	-11.153
▁udaya	-11.1534
jja	-11.1535
▁devi	-11.1536
▁pratijQA	-11.1536
▁sarvatas	-11.154
▁narmadA	-11.1548
yeti	-11.155
▁cAru	-11.1552
▁kuryAd	-11.1554
sidDa	-11.1556
▁prApya	-11.1556
SArdUla	-11.1558
▁kOSika	-11.156
▁ABa	-11.1564
▁vimuc	-11.1564
yi	-11.1571
tapa	-11.1571
hitaM	-11.1573
ruz	-11.1582
▁pAd	-11.1596
varA	-11.1597
malA	-11.1603
▁Brama	-11.1604
▁paTin	-11.1608
laya	-11.1613
▁apy	-11.1617
tAnAM	-11.1618
▁jyotis	-11.1619
avA	-11.1621
lApa	-11.1623
▁purI	-11.1623
inA	-11.1633
▁vESya	-11.1636
mit	-11.1641
SatA	-11.1652
▁AsAday	-11.1656
sat	-11.1664
vizA	-11.1673
▁SrImat	-11.1679
ik	-11.168
Fgul	-11.168
▁sTiti	-11.168
▁mantr	-11.1685
Agni	-11.1685
▁vyakta	-11.1692
viDi	-11.1693
nAda	-11.1693
▁SAs	-11.1706
taraM	-11.1712
lam	-11.1714
▁tRzNA	-11.1717
puzp	-11.1722
AtmAna	-11.1725
aNe	-11.1725
yAdi	-11.1729
▁cet	-11.173
tTa	-11.1738
▁naraka	-11.1738
EvA	-11.1745
kumAr	-11.1749
Uka	-11.1755
▁piz	-11.1757
▁putr	-11.1759
lakzaNa	-11.1763
ganD	-11.1765
▁dviguNa	-11.1774
stan	-11.1785
hanti	-11.179
ratna	-11.1792
▁satatam	-11.1793
▁tapo	-11.18
▁niveday	-11.1805
maNXal	-11.1806
saQj	-11.1808
▁Rte	-11.1814
▁tAla	-11.1816
▁samAhita	-11.1822
yitvA	-11.1824
gur	-11.1827
▁smRti	-11.1829
antu	-11.183
ottama	-11.184
tma	-11.1847
rka	-11.1855
mRta	-11.1855
avo	-11.1864
gop	-11.1865
▁sTUla	-11.1866
endr	-11.1866
▁parameSvara	-11.1872
▁Aruh	-11.1878
antaH	-11.188
amAna	-11.1881
ayat	-11.1897
▁svapna	-11.19
tala	-11.1907
pradA	-11.1909
Akza	-11.192
▁prasU	-11.1921
▁kali	-11.1924
▁Danur	-11.1931
mRj	-11.1933
ayan	-11.1933
yava	-11.1935
▁nEva	-11.1945
▁saMyoga	-11.1948
▁prayam	-11.195
noti	-11.195
▁jAray	-11.1954
▁amara	-11.1959
parva	-11.196
▁vakz	-11.1962
▁prayuj	-11.1964
▁paW	-11.197
▁daSA	-11.1974
mara	-11.1975
▁Suk	-11.1988
▁parityaj	-11.1988
zwam	-11.1996
▁dIpa	-11.2001
taka	-11.2016
▁mRta	-11.2017
darpa	-11.2019
▁sinDu	-11.2019
▁bAhya	-11.2024
▁anupa	-11.2028
▁nidrA	-11.2029
▁pASa	-11.2029
nipAt	-11.2039
muz	-11.2043
▁parIkz	-11.2053
eByo	-11.2068
vallI	-11.2069
kArA	-11.207
▁itara	-11.2089
▁indrA	-11.2091
▁vizama	-11.2095
ScApi	-11.2098
▁saMDyA	-11.2102
yezu	-11.2107
arhasi	-11.2107
yuz	-11.2107
sidDi	-11.2108
putr	-11.2109
▁pUray	-11.2109
▁cAn	-11.2109
▁KaNXa	-11.2111
Bukt	-11.2124
▁AraB	-11.2127
▁SivA	-11.2129
vAta	-11.2137
▁kavi	-11.2139
vidvas	-11.2143
▁praBRti	-11.2146
▁udyam	-11.2149
▁BRSa	-11.2151
▁satata	-11.2154
deSe	-11.2154
▁vikAra	-11.2155
Binna	-11.2162
janma	-11.2165
▁BAs	-11.2165
▁mahad	-11.2166
▁kAka	-11.217
vaDU	-11.217
kazAy	-11.2177
anto	-11.2183
puMgava	-11.2188
Asan	-11.2189
▁Bizaj	-11.2195
muKe	-11.2196
dO	-11.2198
jQe	-11.2199
nv	-11.2199
dakziN	-11.22
izWA	-11.2205
▁ezA	-11.2206
▁svara	-11.2208
BAr	-11.2212
▁baBUva	-11.2216
▁kOrava	-11.2217
ntare	-11.2223
▁raSmi	-11.2229
bAhu	-11.223
bIj	-11.2231
rAg	-11.2231
▁DarmA	-11.2233
plava	-11.2233
▁trElokya	-11.2235
mantray	-11.2238
pAr	-11.2241
niDi	-11.2243
▁SApa	-11.2243
mAnaM	-11.2244
AFga	-11.2246
maya	-11.2247
mada	-11.2251
sattva	-11.2252
▁SUnya	-11.2255
▁AhR	-11.2259
ezAM	-11.226
BrA	-11.226
pattra	-11.2264
gato	-11.2266
▁Sat	-11.2266
rakta	-11.227
▁viSru	-11.2279
oza	-11.2279
Ura	-11.2287
zwo	-11.2299
▁samut	-11.23
▁prahas	-11.2302
▁suKam	-11.2302
▁AcAra	-11.2303
vEr	-11.2306
▁som	-11.2308
hatA	-11.2309
▁maDyama	-11.2311
▁kaTaMcan	-11.2314
maNXa	-11.2323
NAt	-11.2324
vRdD	-11.233
▁kup	-11.2335
▁kalpay	-11.2335
gRha	-11.2337
▁tanU	-11.2347
▁sAm	-11.236
▁kziti	-11.2364
▁sarvadA	-11.2369
▁vitta	-11.2371
dAra	-11.2373
▁ADA	-11.2378
▁prAg	-11.238
▁vESaMpAyana	-11.2387
▁gOtama	-11.2389
▁Acakz	-11.2391
▁Suka	-11.2395
ikaM	-11.2397
▁waFkaNa	-11.24
▁tRNa	-11.2401
▁Suzka	-11.2402
mate	-11.2403
kzya	-11.2405
▁vacaH	-11.2408
karman	-11.2412
tavyA	-11.2417
stra	-11.242
AKya	-11.2426
▁jantu	-11.2435
Asana	-11.2437
▁havis	-11.2438
ASva	-11.244
kopa	-11.2445
▁SuBA	-11.245
vasu	-11.2451
kArya	-11.2474
Bakz	-11.2475
liFga	-11.2476
wikA	-11.2483
varDay	-11.2486
garB	-11.2489
Any	-11.2493
cakr	-11.2503
dina	-11.2511
▁mArkaNXeya	-11.2512
kzo	-11.2513
patra	-11.2514
labD	-11.252
karaM	-11.2523
▁Buvana	-11.2538
▁navan	-11.2541
smA	-11.2547
▁prAjQa	-11.2548
anna	-11.255
cCid	-11.2551
▁hata	-11.2559
mant	-11.256
jitA	-11.2561
▁sAmAnya	-11.2561
yoni	-11.257
▁vAdin	-11.2575
▁jAla	-11.2577
Bavad	-11.2581
kzoB	-11.2582
▁virAj	-11.2583
hita	-11.2584
▁pIXay	-11.2587
dig	-11.2588
karo	-11.2593
▁tenA	-11.2594
▁vicitra	-11.2601
gaNA	-11.2602
▁sadyas	-11.2603
jam	-11.2609
pade	-11.2612
vacana	-11.2613
lamb	-11.2614
cakra	-11.2617
moha	-11.2619
kAle	-11.2638
▁saMsAra	-11.264
dIkz	-11.264
▁naBas	-11.2646
meza	-11.2648
▁yAti	-11.2651
▁kRmi	-11.2662
kti	-11.2665
▁kzuD	-11.2668
agA	-11.2668
▁pitara	-11.2669
vRkza	-11.2672
▁KAd	-11.2678
▁mADava	-11.2682
▁krIX	-11.2683
▁devadeva	-11.2684
gala	-11.2685
▁ev	-11.2695
Sakti	-11.2695
▁kalka	-11.2695
▁drONi	-11.2697
plu	-11.2697
▁DarmarAja	-11.2704
pUj	-11.2706
▁gras	-11.2706
▁meDA	-11.271
rakt	-11.2717
parvan	-11.2724
loha	-11.2727
▁guNA	-11.2731
▁Adika	-11.2732
moh	-11.2738
▁candana	-11.274
vada	-11.2741
▁gR	-11.2743
▁saMDA	-11.2753
eza	-11.2754
dU	-11.2758
▁Srotra	-11.276
rANAM	-11.276
mArga	-11.2762
izw	-11.2766
SaFk	-11.2768
▁saMgrAma	-11.277
sEny	-11.2773
dDi	-11.2775
vRta	-11.2777
▁nUnam	-11.2781
NO	-11.2782
caret	-11.2792
gaNa	-11.2794
▁tR	-11.2794
▁arcay	-11.2795
▁kRtaM	-11.2799
▁saMskAra	-11.2804
▁vimala	-11.2806
▁prANA	-11.2808
▁viprA	-11.2808
wi	-11.281
▁pratyA	-11.2818
▁yasmAt	-11.2824
▁vidyate	-11.2824
▁kaScan	-11.2825
▁mahAbala	-11.2829
kaNW	-11.2829
▁saMyuta	-11.2834
▁kurute	-11.2835
▁DRti	-11.2837
gAmin	-11.2846
hasta	-11.2857
▁tRp	-11.2858
▁krameN	-11.2858
▁ramya	-11.2863
▁tApa	-11.2863
▁SaFk	-11.2864
parNa	-11.2869
▁akzi	-11.288
▁hrI	-11.2888
raFga	-11.2894
▁satyaM	-11.2895
amAnA	-11.2897
Srama	-11.2906
▁parASara	-11.2909
▁stana	-11.2909
rca	-11.2909
vartin	-11.291
▁nAda	-11.2915
Atmaka	-11.2916
▁puruzA	-11.2917
▁manaH	-11.2923
vAp	-11.2927
kuNXal	-11.2928
▁prasad	-11.293
gacC	-11.2932
nizev	-11.2941
candr	-11.2942
kamp	-11.2944
sarp	-11.2946
dvi	-11.2947
▁SuB	-11.2952
▁mamA	-11.2952
vega	-11.2954
ecC	-11.2954
jAtA	-11.2955
▁vidura	-11.2956
aty	-11.297
▁dvijottama	-11.2973
tapta	-11.298
candra	-11.2981
atI	-11.2982
▁DRzwadyumna	-11.2982
skanDa	-11.2984
kzetr	-11.2986
sana	-11.2988
▁samAgam	-11.2994
▁aDipa	-11.3
▁aFgula	-11.3
paNa	-11.3001
yI	-11.3003
cakzuz	-11.3005
kzaya	-11.301
nAha	-11.301
▁ASraya	-11.3013
▁nASana	-11.3018
anty	-11.302
Seza	-11.3026
▁kan	-11.3028
aw	-11.3029
▁OzaDa	-11.303
▁smRta	-11.3031
▁kIrtay	-11.3041
▁anIka	-11.3047
dattA	-11.3052
▁vasti	-11.3054
▁mAs	-11.3054
vAt	-11.3056
vasa	-11.3058
▁nAr	-11.3065
▁vinir	-11.3066
maNi	-11.3067
nApi	-11.307
▁duh	-11.307
samIkz	-11.3078
nut	-11.3082
zad	-11.3083
Sabda	-11.3088
▁putrA	-11.3089
haraNa	-11.3093
ave	-11.311
Dvaja	-11.3112
Ka	-11.3113
▁DArA	-11.3116
▁prokta	-11.312
▁viDivat	-11.3123
▁vistara	-11.3126
tuH	-11.3126
sUta	-11.3128
▁pAQcAl	-11.3129
▁prAQc	-11.3132
gatam	-11.3136
▁trA	-11.3142
Kya	-11.3143
jvara	-11.3143
▁pRTivyA	-11.3155
tiH	-11.3157
▁brahm	-11.3157
yaSca	-11.3161
▁divasa	-11.3163
gav	-11.3167
rAya	-11.3167
▁prApta	-11.3168
▁smRtA	-11.317
▁guhya	-11.317
SAK	-11.3185
kRcCr	-11.3186
▁durlaBa	-11.3188
ety	-11.3189
uttarA	-11.3191
ituM	-11.3193
AsAdya	-11.3194
Qca	-11.3195
vinAS	-11.3195
tIti	-11.3195
▁antarDA	-11.3196
odar	-11.3197
vedA	-11.3199
nyAsa	-11.3202
▁Sap	-11.3203
varza	-11.3203
gRhe	-11.3203
tEla	-11.3206
▁nATa	-11.3208
vAc	-11.3211
▁dIna	-11.3216
▁vinaS	-11.3218
▁vijaya	-11.3219
jina	-11.3219
▁ruDira	-11.3224
▁parvat	-11.3228
▁vastu	-11.3236
cita	-11.3243
san	-11.3245
viXa	-11.325
▁puw	-11.3252
yen	-11.3252
yeva	-11.3253
hetu	-11.3254
▁mata	-11.3255
▁bAD	-11.3263
▁tezAm	-11.3263
ASram	-11.3264
Palam	-11.3269
dAha	-11.3273
imaM	-11.3277
▁Sama	-11.3279
▁mahi	-11.3284
▁arc	-11.3287
▁vimAna	-11.3288
ac	-11.3288
viSeza	-11.3289
stad	-11.3289
▁purastAt	-11.3291
SvAsa	-11.3292
pUjay	-11.3292
Sravas	-11.3293
AyuDa	-11.3296
▁Gawa	-11.33
ire	-11.3308
rjun	-11.3309
▁kzOdra	-11.3316
▁zazwi	-11.3317
▁rAjendra	-11.3325
yAnti	-11.3325
▁pANXavA	-11.3325
▁sru	-11.3341
▁duhitR	-11.3347
BAsa	-11.3348
▁agnir	-11.3357
▁SarkarA	-11.3359
▁prapad	-11.3361
▁itya	-11.3365
▁kutas	-11.3374
mudrA	-11.3379
Srut	-11.3379
▁hE	-11.3381
▁itas	-11.3383
SIr	-11.3385
DAraNa	-11.3391
▁uru	-11.3392
pU	-11.3402
yama	-11.3403
akam	-11.3405
▁nind	-11.3414
pO	-11.3414
▁SaM	-11.3416
▁loBa	-11.3416
BAvA	-11.3425
▁parI	-11.343
rTam	-11.3435
▁kvATa	-11.3436
▁miTyA	-11.3436
▁ripu	-11.3437
▁kAryA	-11.3439
carita	-11.344
▁sara	-11.3444
▁SAka	-11.3444
sahasra	-11.3445
▁pAlay	-11.3448
rUpya	-11.3451
ovAca	-11.3451
mitA	-11.3457
▁vRzwi	-11.3459
▁gAyatrI	-11.3459
▁aDizWA	-11.346
▁pippalI	-11.3462
nala	-11.3462
mUtr	-11.3467
nIti	-11.347
kRtaM	-11.3472
kAraka	-11.3472
AruN	-11.3481
▁yaSasvin	-11.3483
▁Dara	-11.3484
▁SR	-11.3489
lO	-11.349
▁saMvid	-11.3494
▁tarpay	-11.3494
▁aKila	-11.35
▁SoPa	-11.3504
▁yojana	-11.3508
▁karmaNA	-11.3511
▁BAskara	-11.3513
prakAS	-11.3515
▁yaTAviDi	-11.352
kO	-11.3521
kzaN	-11.3524
yAmi	-11.3524
▁Ahu	-11.3531
SoBa	-11.3533
▁avyaya	-11.3537
sAM	-11.3539
vedi	-11.3543
red	-11.3543
▁SRFga	-11.3544
Kal	-11.3547
▁guXa	-11.355
siMh	-11.3553
▁icCA	-11.3568
▁divyA	-11.3574
pakza	-11.3574
▁arTin	-11.3585
cira	-11.3588
kzAra	-11.3588
▁nandana	-11.3596
▁smar	-11.3599
Bave	-11.3602
▁mahAmati	-11.3603
▁dvijA	-11.3605
yoge	-11.3606
▁BANXa	-11.3608
matI	-11.3609
▁samIpa	-11.3612
▁kartavya	-11.3615
vanta	-11.3618
vAsay	-11.3619
▁savitR	-11.3619
▁devo	-11.3622
▁SaS	-11.3628
yann	-11.3629
yukto	-11.3639
rakza	-11.364
ramBa	-11.3641
▁stamBa	-11.3642
nva	-11.3649
un	-11.365
▁niScaya	-11.3652
▁niyama	-11.3653
evaM	-11.3655
mAha	-11.3658
drAva	-11.3662
▁tayA	-11.367
▁prAk	-11.3673
▁viji	-11.3676
▁apsaras	-11.3677
Atmaja	-11.3681
▁prakR	-11.3683
meha	-11.3685
Asu	-11.369
▁kuNXa	-11.369
▁narA	-11.3693
kapAla	-11.3697
AdO	-11.3704
tAv	-11.3706
rAv	-11.3708
▁Asya	-11.3726
▁yasyA	-11.3729
rAm	-11.3729
▁suBUti	-11.3729
▁uktvA	-11.3732
▁cintA	-11.3733
▁laFkA	-11.3735
tizWat	-11.3739
AyAM	-11.3743
▁vedanA	-11.3756
▁Bara	-11.3769
▁Basma	-11.3773
▁pAQcAla	-11.3773
itE	-11.3773
vezw	-11.3775
▁Bezaja	-11.3776
gIta	-11.3776
tattva	-11.3777
▁vyavasTA	-11.3777
ozNa	-11.3781
▁IdRSa	-11.3782
tApa	-11.3786
mArut	-11.3787
yopa	-11.3787
daS	-11.3787
▁jQAtvA	-11.3792
kzara	-11.3798
▁grahaNa	-11.3801
vAsA	-11.3802
vida	-11.3803
▁vivarjay	-11.3805
lay	-11.3805
sTitA	-11.381
mRd	-11.3814
▁pOra	-11.3818
▁nud	-11.382
▁azwA	-11.3821
▁nakzatra	-11.3822
▁eko	-11.3828
▁BaratarzaBa	-11.3828
▁paraMtapa	-11.3828
varg	-11.3836
▁asti	-11.3837
kEr	-11.384
sur	-11.3841
Boga	-11.3844
roha	-11.3848
panna	-11.3853
prasTa	-11.3857
antya	-11.3857
▁ASA	-11.3858
▁rAjQA	-11.3863
sarpa	-11.3865
▁anujQA	-11.3872
▁catuz	-11.3873
▁vikR	-11.3877
sarva	-11.3881
▁manyu	-11.3882
meka	-11.3893
▁AyuDa	-11.3901
▁DIra	-11.3903
zwO	-11.3904
tyakt	-11.3905
▁udBava	-11.3908
hitam	-11.3912
▁tris	-11.3916
kAmA	-11.3917
▁sirA	-11.3928
puruza	-11.3933
▁bahuDA	-11.3934
puwe	-11.3936
ptA	-11.3939
Era	-11.394
NXA	-11.3942
vanam	-11.3943
▁tUrNam	-11.3946
▁oGa	-11.3946
BAgA	-11.395
▁Sayana	-11.395
▁saKI	-11.3955
nATa	-11.3956
▁mAlA	-11.3959
▁locana	-11.3961
▁bahis	-11.3962
▁zoXaSa	-11.3963
▁nizka	-11.3968
sparSa	-11.397
▁kalyANa	-11.3979
▁ruj	-11.3982
Antara	-11.3989
Sastr	-11.3993
nava	-11.4
parN	-11.4008
niveS	-11.4017
ran	-11.4022
sarv	-11.4028
dvij	-11.4028
▁mahIpati	-11.4037
▁prANin	-11.4038
▁tAvad	-11.4043
mati	-11.4046
▁putro	-11.4057
patya	-11.4058
▁snAtvA	-11.4068
▁vapus	-11.4068
▁durga	-11.4069
BUtAni	-11.4073
▁ucC	-11.4074
parNI	-11.4075
Anya	-11.4079
kusum	-11.408
hara	-11.4082
nDa	-11.4082
Slezma	-11.4089
▁hiMs	-11.4089
▁KaXga	-11.409
▁aSeza	-11.409
▁DArtarAzwra	-11.4091
stena	-11.4091
SIrza	-11.4094
▁sarvaSas	-11.4095
▁prayoga	-11.4098
hva	-11.41
jAt	-11.4101
▁tizW	-11.4103
manya	-11.4107
▁druma	-11.4108
▁vRzya	-11.4111
mAtraM	-11.4112
▁ozaDi	-11.4114
kAya	-11.4115
dant	-11.4117
itAn	-11.4118
paro	-11.4122
▁sarit	-11.4126
▁avekz	-11.4128
▁tapasvin	-11.413
zI	-11.4133
▁ariMdama	-11.4138
sarg	-11.4142
▁naKa	-11.4143
gal	-11.4144
dInAM	-11.4145
ByA	-11.4145
▁pravRtti	-11.4156
▁hastin	-11.416
▁SItala	-11.4165
nABi	-11.4165
▁gagana	-11.4166
▁dUta	-11.4167
▁kadAcan	-11.4178
sneh	-11.4184
▁pratApa	-11.4186
▁samyag	-11.4187
Badra	-11.4192
sye	-11.4192
▁cyu	-11.4198
▁vidyut	-11.4199
▁jagAma	-11.4202
patir	-11.4203
▁SoBana	-11.4204
trAsa	-11.4208
nAla	-11.4208
paFk	-11.4212
diva	-11.4217
Bakt	-11.4221
▁SAKA	-11.4224
labDa	-11.4224
▁kAlA	-11.4225
▁paTya	-11.4228
muzwi	-11.4238
▁SASvata	-11.4244
▁BAnu	-11.4253
▁bRhad	-11.4261
iyaM	-11.4261
▁dadarSa	-11.4261
mapi	-11.4263
mAMsa	-11.4264
▁nihat	-11.4272
odara	-11.428
uzN	-11.4281
arT	-11.4284
▁avas	-11.4285
vAraNa	-11.4288
▁karza	-11.429
▁SiSu	-11.4291
▁niDana	-11.4291
▁SarE	-11.4293
aMsa	-11.4295
tarhi	-11.4298
hRd	-11.4302
apa	-11.4313
▁ambara	-11.4316
hya	-11.4324
samud	-11.4326
▁Denu	-11.4327
maFgal	-11.4335
ap	-11.434
▁izu	-11.4342
▁krUra	-11.4346
▁pare	-11.4349
▁tapasA	-11.4349
▁SIGram	-11.4352
ila	-11.4353
sTita	-11.4354
lla	-11.4357
GrA	-11.4359
rUpin	-11.436
▁dApay	-11.4361
kAri	-11.4363
▁tU	-11.4366
▁atiTi	-11.4366
eSvar	-11.4367
srava	-11.4369
cAri	-11.437
asam	-11.437
▁kzudra	-11.4371
kampa	-11.4372
paQca	-11.4373
SuB	-11.4374
▁homa	-11.4376
▁ESvarya	-11.4378
paryanta	-11.4378
manu	-11.4387
▁kaNXU	-11.4387
atra	-11.4389
pitta	-11.4394
▁samaM	-11.4397
▁gup	-11.4397
▁kasmAt	-11.4398
pAw	-11.4401
ganDarv	-11.4414
hito	-11.4414
pare	-11.4415
▁sTitA	-11.4416
▁amBas	-11.4421
okt	-11.4423
▁triviDa	-11.4427
▁Agama	-11.4427
eka	-11.4432
▁aBI	-11.4432
odaka	-11.4433
▁sUtra	-11.4435
▁sarga	-11.444
rc	-11.4443
▁kAzWa	-11.4447
▁aByA	-11.4459
Al	-11.4462
jaya	-11.4469
▁bindu	-11.4469
cint	-11.4474
▁SOca	-11.448
snigD	-11.4482
▁SanEs	-11.4483
▁adri	-11.4494
raj	-11.4497
locana	-11.4498
mardana	-11.4499
▁vRzaBa	-11.4506
strI	-11.4509
loma	-11.451
jIrNa	-11.4513
garBa	-11.4516
▁aditi	-11.4517
devA	-11.4518
▁arha	-11.4518
▁ityeva	-11.4521
ruD	-11.453
▁triDA	-11.4531
grAh	-11.4532
▁sArDaM	-11.4533
pAzANa	-11.4538
▁mukti	-11.4539
priye	-11.4541
▁dIkzA	-11.4551
dAya	-11.4552
▁aQjana	-11.4562
rjuna	-11.4567
nIyA	-11.4571
▁Buvi	-11.4584
uda	-11.4586
vati	-11.459
▁sve	-11.4596
▁pratyeka	-11.4596
DAtrI	-11.4597
BO	-11.46
BAge	-11.4606
tulya	-11.4607
bruvan	-11.461
▁mAlya	-11.4615
▁ajA	-11.4618
zoXaS	-11.462
rja	-11.4623
▁sAraTi	-11.4623
▁kRtam	-11.4624
dizwa	-11.4626
itR	-11.4627
etad	-11.4632
▁dvipa	-11.4632
eNA	-11.4634
▁mahApurANa	-11.4635
▁kawuka	-11.4637
▁dviDA	-11.4638
▁muktA	-11.4643
▁pit	-11.4646
nada	-11.465
▁kiMcit	-11.465
▁tanaya	-11.465
Dika	-11.4651
sADaka	-11.4654
OzaD	-11.4658
tvena	-11.4659
▁Ayuzmat	-11.4662
vaSA	-11.4662
krAnt	-11.4665
▁parAkrama	-11.4668
vaSa	-11.4669
rAzwr	-11.4672
lavaN	-11.4677
vAdin	-11.4682
vRz	-11.4683
paSya	-11.4685
▁vadana	-11.4686
gnir	-11.4689
▁vicar	-11.4691
mayaM	-11.4691
sahasr	-11.4691
yogya	-11.4693
mitra	-11.4693
gAXa	-11.4699
▁mAza	-11.47
janA	-11.4701
bi	-11.4704
kule	-11.4707
kRzwa	-11.4707
▁prAha	-11.4714
ratn	-11.4716
BAve	-11.4717
▁viKyA	-11.4718
ehi	-11.4718
▁koSa	-11.4718
▁ceti	-11.4723
dadO	-11.4725
citra	-11.473
syati	-11.4732
▁saMvRt	-11.4735
BUtaM	-11.4742
staM	-11.4743
Bojan	-11.4748
▁yac	-11.4751
▁DAv	-11.4752
jala	-11.4758
▁kaScid	-11.4763
▁ciram	-11.4764
lepana	-11.4765
gAra	-11.4769
kumB	-11.477
mukt	-11.477
▁svid	-11.477
kulA	-11.4771
▁BaQj	-11.4774
pUra	-11.478
DRz	-11.4789
▁alaMkR	-11.4794
▁upadiS	-11.4795
▁saptaDA	-11.4797
putrA	-11.4797
tava	-11.4798
▁alam	-11.4803
▁pratyaya	-11.4803
tti	-11.4805
yAtrA	-11.4809
SIt	-11.4809
mano	-11.481
droN	-11.4814
▁mEtreya	-11.4815
▁vinikzip	-11.4828
yojayet	-11.484
DUma	-11.4841
▁zazWa	-11.4841
Iva	-11.4844
▁sarvaTA	-11.4844
kroSa	-11.4847
▁raTin	-11.4856
gaj	-11.4856
▁Sakuni	-11.4859
vAdi	-11.4861
▁dyuti	-11.4865
pAl	-11.4867
ramB	-11.4871
nila	-11.4879
▁vasuDA	-11.488
hRday	-11.4882
vRdDi	-11.4889
nEH	-11.4889
pata	-11.4889
▁diSa	-11.4893
▁jagad	-11.4898
▁yozit	-11.4903
▁anRta	-11.4904
▁Ardra	-11.4914
▁aDyA	-11.4921
▁nanu	-11.4923
▁pradakziNa	-11.4932
▁acyuta	-11.4937
▁sTita	-11.4938
ArT	-11.4939
▁sAma	-11.494
▁gRhapati	-11.4943
▁sAhasra	-11.4947
puruz	-11.4948
Asi	-11.4948
ike	-11.4949
loke	-11.4956
▁Apat	-11.4957
▁lokAn	-11.4959
▁rayi	-11.4964
▁prajan	-11.4965
▁udA	-11.4971
▁umA	-11.4972
tarA	-11.4972
▁sADana	-11.4973
▁kzamA	-11.4979
vasTA	-11.4987
yajQ	-11.4987
stvaM	-11.4988
tsu	-11.499
▁druta	-11.4995
▁caraNa	-11.4997
traya	-11.4998
▁tata	-11.4999
▁parAyaNa	-11.5002
▁Sarad	-11.5011
dagD	-11.5012
krAnta	-11.5014
▁praBo	-11.5015
▁nirIkz	-11.5017
▁udAhR	-11.5018
▁manIzi	-11.5024
ANAm	-11.5027
jQo	-11.5029
eyam	-11.5029
GAt	-11.503
gulm	-11.5032
pta	-11.5039
▁taTAgata	-11.5041
▁viSve	-11.5041
vyo	-11.5044
syApi	-11.5046
ndrA	-11.5046
rNa	-11.5047
vaDA	-11.5048
▁lohita	-11.5049
hat	-11.5051
mokz	-11.5053
▁aMSu	-11.5053
▁kleSa	-11.5056
jihv	-11.5059
GnaM	-11.5067
▁tizWat	-11.5071
▁nAtra	-11.5076
▁biB	-11.5078
nE	-11.5096
guNA	-11.5099
▁uzas	-11.5099
rav	-11.5107
nirvRt	-11.5108
granT	-11.511
Boj	-11.5111
ntara	-11.5112
▁tatr	-11.5114
▁tArA	-11.5114
endriya	-11.5115
boDi	-11.5117
mAlin	-11.5118
Aste	-11.5123
▁cakre	-11.514
mAh	-11.5142
▁pramA	-11.5148
▁japa	-11.5148
hast	-11.515
brU	-11.5153
manuzy	-11.5158
▁varcas	-11.5159
kozW	-11.5163
▁Ucu	-11.5171
kand	-11.5175
hrad	-11.5177
▁nakula	-11.5177
gantu	-11.5178
▁meru	-11.5179
▁lepay	-11.5182
vyaD	-11.5185
tejasA	-11.5193
devo	-11.5195
▁ahi	-11.5202
cetas	-11.5202
▁dRSyate	-11.5203
▁upapad	-11.5205
▁yoDa	-11.5213
vanti	-11.5214
padyate	-11.5215
▁aBraka	-11.5219
yAc	-11.522
sTo	-11.5223
▁viSvAmitra	-11.5225
▁atikram	-11.5225
▁aBisaM	-11.5227
nizW	-11.5228
▁nAXI	-11.5228
kRto	-11.5228
▁nirmA	-11.5236
kaNwaka	-11.5246
▁vidvAn	-11.5249
▁yudDe	-11.5252
cikIrz	-11.5252
▁pRTag	-11.5252
▁rAjQa	-11.5256
nU	-11.5258
raNya	-11.5261
▁duH	-11.5263
▁rAkzasA	-11.5264
▁samiD	-11.5268
saMKya	-11.5276
zo	-11.5279
lokya	-11.5279
rahita	-11.5289
▁mayi	-11.5291
yASca	-11.5296
▁sitA	-11.5305
▁hatvA	-11.5306
kze	-11.5308
Biz	-11.5308
SAstr	-11.532
▁jawA	-11.5323
yatA	-11.5323
nah	-11.5323
jvar	-11.5325
vIta	-11.533
▁hotR	-11.5333
Upa	-11.5346
▁prezay	-11.5348
rada	-11.5357
uktvA	-11.5357
▁divi	-11.5359
bu	-11.5363
▁kArayet	-11.5364
▁stoma	-11.5379
▁Anana	-11.5384
dagDa	-11.5384
▁guhA	-11.5386
kaNWa	-11.5387
mayA	-11.5388
SaFK	-11.539
▁drav	-11.539
daNXa	-11.5392
▁puzwi	-11.5393
taye	-11.5398
▁pacet	-11.5405
evA	-11.5407
▁rudrA	-11.5408
mupa	-11.5409
▁uttamam	-11.5411
miza	-11.5414
padaM	-11.5422
grAha	-11.5426
Ambu	-11.5428
▁bAlA	-11.5435
▁jQAti	-11.544
mAla	-11.545
▁anala	-11.546
▁saMkalpa	-11.5465
vAya	-11.5465
▁guQjA	-11.5467
rUpeN	-11.5469
karI	-11.5471
▁haviz	-11.5485
▁vayam	-11.5491
▁kamala	-11.5492
vayo	-11.5497
▁vAkyam	-11.5499
jane	-11.5499
supt	-11.5503
▁vyasana	-11.5506
▁samADi	-11.5512
kAlaM	-11.5529
aBi	-11.5532
▁Bavana	-11.5535
▁tvAm	-11.5535
▁sarvajQa	-11.5536
rati	-11.554
Aso	-11.5543
▁rOdra	-11.5547
▁gopA	-11.5548
haret	-11.5553
rASi	-11.5554
▁viSuD	-11.5554
▁asmin	-11.5554
IBU	-11.5557
▁pur	-11.5559
ntaH	-11.557
▁smita	-11.5572
rAjAnaM	-11.5572
▁yuv	-11.5573
pAN	-11.5573
diti	-11.5576
ISvar	-11.5576
▁pavana	-11.5576
▁divyaM	-11.5577
nimba	-11.5577
▁RdDi	-11.5584
yAyaH	-11.5588
▁devAn	-11.5589
zyanti	-11.5591
▁mantrin	-11.5591
Buva	-11.5593
cCan	-11.5594
▁yuDi	-11.5603
nEr	-11.5604
rzi	-11.5608
Dipa	-11.5611
▁Uru	-11.5619
▁brahmacarya	-11.562
▁maGavan	-11.5624
▁sidDA	-11.5627
mayo	-11.5629
taro	-11.5641
▁prasTA	-11.5652
▁lakza	-11.5654
mudga	-11.5659
▁gacCat	-11.5662
▁saptama	-11.5663
uBO	-11.5666
pary	-11.567
▁puzkara	-11.5672
▁viSiz	-11.5672
dayaH	-11.568
▁preta	-11.5681
▁anugam	-11.5682
lU	-11.5685
putro	-11.5691
▁paSyat	-11.5701
▁gada	-11.5705
kRtam	-11.5714
yamANa	-11.5715
▁dugDa	-11.5718
ruk	-11.5724
▁udi	-11.5726
▁viBaj	-11.5728
▁prAS	-11.573
tyAdi	-11.573
▁sac	-11.5731
druma	-11.5734
▁SamBu	-11.5738
til	-11.575
rita	-11.5751
up	-11.5759
vraj	-11.5762
dik	-11.5764
▁AdAya	-11.5765
▁devAnA	-11.5766
darSin	-11.5776
lakzya	-11.5779
▁rajanI	-11.578
Bakza	-11.578
▁saMniBa	-11.5783
▁SAsana	-11.5787
sRzw	-11.5794
nnA	-11.5794
▁araNya	-11.5803
kzit	-11.581
▁striya	-11.5814
FgI	-11.5818
jyotiz	-11.5819
▁saMvR	-11.5821
▁granTi	-11.5821
praBA	-11.5822
pAya	-11.5824
vajr	-11.5825
Adya	-11.5826
mRg	-11.5826
kvAT	-11.5827
saMyukta	-11.5831
pAk	-11.5831
▁Darmo	-11.5844
brAhmaN	-11.5845
BAra	-11.5846
▁deveSa	-11.5847
darSanA	-11.5847
aDo	-11.5851
sUkzm	-11.5852
▁pradIp	-11.5857
antam	-11.5858
tIrTe	-11.5872
lakzaNam	-11.5872
▁tvat	-11.5872
vaj	-11.5873
▁pakz	-11.5873
pUrNa	-11.5875
SUla	-11.5876
akRt	-11.5876
vratA	-11.588
lakzma	-11.5882
mataH	-11.5882
▁jAtu	-11.5884
▁sahasrA	-11.589
▁co	-11.5892
▁janamejaya	-11.5895
AtmAnam	-11.5896
brahma	-11.5897
▁kAca	-11.5899
Samana	-11.5907
mantr	-11.5908
▁vRzNi	-11.5911
kalA	-11.5915
kir	-11.5918
Bis	-11.5921
▁uras	-11.5924
nara	-11.5928
harza	-11.5932
jQAta	-11.5933
vastr	-11.5936
nRp	-11.5937
suKa	-11.5937
▁yaTAvat	-11.594
▁aFgiras	-11.5942
cir	-11.5947
▁vismaya	-11.5952
▁majj	-11.5953
triMSat	-11.596
ISa	-11.5963
▁vIryavat	-11.5965
▁svAmin	-11.5968
kAmo	-11.5972
izya	-11.5974
Sizy	-11.5974
DUm	-11.5975
▁IS	-11.5982
▁aDigam	-11.5984
veti	-11.5985
manTa	-11.599
DarmA	-11.599
gre	-11.5999
Iza	-11.6002
▁mAhAtmya	-11.6002
vika	-11.6004
vIry	-11.601
▁sPur	-11.6013
tUr	-11.6014
stU	-11.6016
▁amitra	-11.6023
▁aDa	-11.6024
▁atyanta	-11.6028
▁puNyA	-11.6031
▁dvaMdva	-11.6031
midaM	-11.6035
▁Ahava	-11.6036
▁aparA	-11.6039
ndriy	-11.6042
lyA	-11.6045
▁ekAdaSa	-11.6049
vartana	-11.6052
▁sAnu	-11.6054
yug	-11.6055
ezva	-11.6056
cetana	-11.6056
hArin	-11.6057
▁sahadeva	-11.6059
prIt	-11.6066
▁vRkodara	-11.607
BErav	-11.607
tiTi	-11.6075
▁aBigam	-11.6076
tavAn	-11.6078
syE	-11.6079
▁jAtavedas	-11.6085
▁dviviDa	-11.6088
InAm	-11.6089
purA	-11.609
gnO	-11.6095
ndu	-11.6095
▁BErava	-11.6101
▁vEra	-11.6102
Sara	-11.6103
citta	-11.6109
gacCat	-11.6112
izu	-11.6114
gne	-11.6118
▁dEvata	-11.612
karz	-11.6124
dvAdaS	-11.6125
▁samam	-11.6126
▁upalaB	-11.6131
▁nigrah	-11.6133
▁aDvan	-11.6133
▁bAnDava	-11.6134
▁anuttama	-11.6137
odana	-11.6138
▁ayam	-11.6144
puwa	-11.6144
▁gRhItvA	-11.6144
▁bAzpa	-11.6146
vye	-11.6147
yupa	-11.6151
▁SoDana	-11.6153
SAstra	-11.6153
ADipa	-11.6153
yajQa	-11.6158
vaDi	-11.6162
▁dvijAti	-11.617
▁tRz	-11.6174
▁praT	-11.6186
ayor	-11.6187
jale	-11.6189
vekz	-11.6191
▁ara	-11.6194
arTa	-11.6197
▁pravi	-11.6198
pippal	-11.6199
▁anye	-11.62
nAmA	-11.6201
▁SUr	-11.6204
▁kzama	-11.6206
Agr	-11.6207
▁amita	-11.6212
keSa	-11.6212
tantr	-11.6214
yAnAM	-11.6216
atAm	-11.6218
druti	-11.6219
▁lih	-11.6219
▁uddiS	-11.6221
▁Rz	-11.6221
▁mahAraTa	-11.6225
atu	-11.6225
rAjya	-11.6231
▁sarvato	-11.6235
▁kaTita	-11.6235
niyat	-11.6238
DRt	-11.6243
gRhIt	-11.6246
rikA	-11.625
Siras	-11.6252
▁samupa	-11.6254
ISvara	-11.6258
▁drOpadI	-11.6263
▁SyAma	-11.6263
Ante	-11.6263
▁ISAna	-11.6263
▁drupada	-11.6265
pANXav	-11.6267
▁Svas	-11.6268
▁brUhi	-11.6271
yacCa	-11.6272
▁kRSa	-11.6273
▁anyA	-11.6273
▁saMpra	-11.6274
bAnDav	-11.6276
sapta	-11.6276
nyo	-11.6279
▁govinda	-11.6282
Kila	-11.629
▁svaDA	-11.6292
▁asyA	-11.6293
BiSca	-11.6294
▁yajamAna	-11.6294
param	-11.6296
sTAne	-11.6297
ccA	-11.6301
▁Kowa	-11.6308
▁nirji	-11.6309
varI	-11.6309
saK	-11.6311
▁sRzwi	-11.6312
Soka	-11.6313
▁Pal	-11.6313
stataH	-11.6316
▁saMhitA	-11.6322
▁raTA	-11.6326
▁tIrT	-11.6331
yamAno	-11.6341
opA	-11.6346
tale	-11.6347
▁zoXaSan	-11.635
jiGAMs	-11.6353
▁iv	-11.6354
▁manye	-11.6354
SudDa	-11.6357
▁AhvA	-11.6358
▁DUpa	-11.6361
▁yukti	-11.6364
nyaTA	-11.6367
▁SiKaNXin	-11.6368
▁BArgava	-11.6368
Danuz	-11.637
jah	-11.6374
pRT	-11.638
▁aBaya	-11.6386
trayam	-11.6386
kAni	-11.6387
bADa	-11.6387
▁dadyAt	-11.6388
darBa	-11.6389
pratI	-11.6391
pAtana	-11.6394
pAdA	-11.6395
bahu	-11.6398
▁samAp	-11.6406
ASu	-11.6417
puzpA	-11.6419
taSca	-11.642
yUh	-11.6424
▁pibet	-11.6425
▁mahAtmanA	-11.6426
▁viBA	-11.6427
kAry	-11.6431
▁madra	-11.6438
kuw	-11.6439
▁smRtam	-11.6442
saMgraha	-11.6451
▁viSAM	-11.6453
vRD	-11.6457
▁kvacit	-11.6461
ikam	-11.6476
▁Darme	-11.648
▁vakzyAm	-11.6481
meDa	-11.6482
▁vyoman	-11.6485
tU	-11.6485
stat	-11.6489
▁vaNij	-11.649
dah	-11.6491
vyUha	-11.6491
▁acala	-11.6492
▁suDA	-11.6495
boD	-11.6497
SuSrUz	-11.6503
▁yayAti	-11.6507
▁retas	-11.6509
lakzaN	-11.6518
kUp	-11.6519
yAti	-11.652
▁narendra	-11.6521
iNo	-11.653
pIXay	-11.6537
▁prArTay	-11.6538
▁puruzo	-11.6544
▁vidu	-11.6547
▁jAnu	-11.6558
prasAd	-11.6566
▁madana	-11.6567
▁niSci	-11.6572
BUzit	-11.6574
UnAM	-11.6576
▁BUyo	-11.6576
▁jal	-11.6577
rasena	-11.6578
▁Bojay	-11.6583
▁DU	-11.6585
▁kusuma	-11.659
▁ozaDI	-11.6598
▁evE	-11.6602
Basma	-11.6607
darSanam	-11.661
maNXala	-11.6613
OzaDa	-11.6614
tavyam	-11.6614
▁dehin	-11.6614
▁sakRt	-11.6615
▁dakziNe	-11.6615
kalk	-11.6615
▁jQeya	-11.6621
▁rakzA	-11.6622
mAno	-11.6623
▁mahAsattva	-11.6632
dravya	-11.6637
▁payo	-11.6638
mUlaM	-11.6639
▁sumahA	-11.6644
▁garuXa	-11.6644
yAsa	-11.665
sUnu	-11.665
▁cAsya	-11.6668
▁vRTA	-11.6669
AtmanA	-11.667
Anvita	-11.6673
▁yOvana	-11.6676
▁vyava	-11.6679
▁tasmA	-11.668
▁Ayatana	-11.6681
vikrama	-11.6687
pUrNA	-11.6691
ime	-11.6693
rTo	-11.6694
▁sahasraSas	-11.6695
▁prakzip	-11.67
▁atIva	-11.6702
nAra	-11.6703
▁vEdehI	-11.6707
▁dadyAd	-11.6712
▁samudDR	-11.6717
pizwa	-11.6718
▁sTAlI	-11.6719
vyADa	-11.6721
▁idAnIm	-11.6722
▁SoDay	-11.6722
▁ABaraNa	-11.6725
▁pakzin	-11.6726
▁apatya	-11.6731
karNikA	-11.6733
nASanam	-11.6738
▁aSru	-11.674
trya	-11.6741
▁saMskR	-11.6749
mANa	-11.6753
ANy	-11.6758
vikAr	-11.6763
kzIra	-11.6768
lamba	-11.6769
▁niryA	-11.6769
▁saMjan	-11.6773
kulI	-11.6774
antA	-11.6781
Danvan	-11.6789
Ul	-11.679
▁asRj	-11.6793
▁kzam	-11.6801
muKI	-11.6801
yAga	-11.6809
mokza	-11.681
▁akzaya	-11.6811
heto	-11.6815
yUT	-11.6816
stamB	-11.6817
▁viSezeN	-11.6817
yaTA	-11.682
loB	-11.6821
hate	-11.6822
▁Akula	-11.6827
jAyate	-11.6827
suta	-11.6828
tuzw	-11.6833
▁anaGa	-11.684
rzaBa	-11.6841
▁trivRt	-11.6844
aNo	-11.6846
dyumna	-11.6849
▁vEdya	-11.6852
kzay	-11.6857
tvayi	-11.6859
caryA	-11.6863
▁virAwa	-11.6865
▁indro	-11.6865
▁bilva	-11.6868
yantre	-11.6876
▁aFg	-11.6878
pAtre	-11.6879
GnI	-11.6882
▁saMyuga	-11.6884
▁arNava	-11.6886
prada	-11.6888
vadan	-11.6892
kzep	-11.6895
▁DaraNI	-11.69
▁vyAhR	-11.6901
▁vRzan	-11.6905
loh	-11.6908
▁sarvAN	-11.691
▁BrU	-11.6913
mEtr	-11.6917
ml	-11.6921
duz	-11.6922
▁utpatti	-11.6929
varo	-11.6929
Antar	-11.6929
▁rE	-11.693
yogen	-11.6931
vaSya	-11.6935
▁aFka	-11.6938
▁Sibi	-11.6944
▁drazwu	-11.6944
ino	-11.6946
tyo	-11.6947
toza	-11.6948
▁gRDra	-11.6949
cArin	-11.6954
sutaH	-11.6956
cCati	-11.6956
sah	-11.6958
kAnta	-11.6959
▁mAriza	-11.6961
▁samantAt	-11.6961
gRhIta	-11.6963
▁nAsA	-11.6965
▁sAyaka	-11.6972
vyakt	-11.6974
▁Cidra	-11.6983
varti	-11.6984
nity	-11.6988
▁SayyA	-11.6988
▁samupA	-11.6988
vinda	-11.6994
▁BRFga	-11.6995
▁AkRti	-11.7004
▁vAtA	-11.7006
▁yadu	-11.7008
▁paScima	-11.7009
cet	-11.7009
opama	-11.701
nimitta	-11.7014
kuzWa	-11.7016
Amla	-11.7019
Druv	-11.7021
salil	-11.7022
▁ayas	-11.7023
pIW	-11.7023
▁Atapa	-11.7032
▁dRzwA	-11.7035
RtaM	-11.7037
▁aTE	-11.7044
pUrvA	-11.7048
tamA	-11.7057
viSezA	-11.7057
▁aprati	-11.706
puw	-11.7061
vasan	-11.7062
▁hRdi	-11.7063
▁kAntA	-11.7063
▁DAman	-11.7066
ntaka	-11.7071
▁samarTa	-11.7073
▁tatrEva	-11.7075
▁duHKita	-11.7077
▁asra	-11.7079
svaBAv	-11.708
▁svana	-11.7081
▁amu	-11.7081
pitA	-11.7088
▁purohita	-11.7091
kAraNa	-11.7091
▁Amaya	-11.7096
▁icCAm	-11.7096
▁uccA	-11.7099
kurvan	-11.7102
▁Ahuti	-11.7103
▁SarA	-11.7106
lp	-11.7108
▁Ahur	-11.711
▁nAgA	-11.7112
bravI	-11.7114
mut	-11.7114
▁kAnti	-11.7117
▁upagam	-11.7118
netr	-11.7122
riNA	-11.7123
▁laBate	-11.7127
nASa	-11.713
mbara	-11.7131
saMhAra	-11.7131
vAky	-11.7135
srAva	-11.7135
dvay	-11.7139
pallav	-11.7139
haraM	-11.7139
ByAm	-11.7145
▁maFgala	-11.7149
saMKyA	-11.7149
▁sUtaka	-11.715
paQc	-11.7152
sRzwa	-11.7153
dugD	-11.7161
▁Ayam	-11.7162
▁Ceda	-11.7176
▁aFgAra	-11.7177
▁Sloka	-11.7178
cCeda	-11.7181
▁viparIta	-11.7182
▁srotas	-11.7184
viSez	-11.7186
▁Avi	-11.719
▁satI	-11.719
SudD	-11.7191
▁vAcA	-11.7192
mAyA	-11.7193
▁sPuwa	-11.72
▁ju	-11.7202
▁naga	-11.7204
bravId	-11.7206
▁jAraNa	-11.7206
▁mil	-11.7208
edaM	-11.7208
▁upaviS	-11.7213
▁nivas	-11.7214
▁Ayu	-11.7214
grAhya	-11.7214
viSArada	-11.7218
▁tIra	-11.7219
saha	-11.7221
▁varD	-11.7222
prApti	-11.7222
dIp	-11.7223
▁savya	-11.7225
▁aruNa	-11.7229
▁praBava	-11.723
Ano	-11.723
pAtra	-11.7231
carma	-11.7231
dvO	-11.7233
▁amar	-11.7234
lAB	-11.7234
zU	-11.7235
▁lakzay	-11.7236
▁kUrma	-11.7254
yantI	-11.7254
▁agnihotra	-11.7255
▁kziptvA	-11.7259
janana	-11.7262
sutA	-11.7268
tmA	-11.7272
▁mUrCA	-11.7273
pracC	-11.7275
▁kOrav	-11.728
tAp	-11.728
▁purIza	-11.7287
▁manuzyA	-11.7287
▁grAsa	-11.729
kAsa	-11.7291
SoNit	-11.7295
▁tapaH	-11.7295
sakta	-11.7296
vaMS	-11.7303
▁citraka	-11.7303
▁maDusUdana	-11.7304
▁Bag	-11.7305
syAmi	-11.7307
▁yasmin	-11.7308
paQcaka	-11.731
▁amAtya	-11.732
▁antika	-11.7321
▁BRtya	-11.7324
▁kOravya	-11.733
viSudD	-11.7333
kIrNa	-11.7345
saMkAS	-11.7345
▁tApya	-11.7353
▁mahAtejA	-11.7354
▁SlakzNa	-11.7354
ucyate	-11.7355
▁proktA	-11.7356
nind	-11.7363
DAnA	-11.7365
varman	-11.7369
Arin	-11.7372
▁upAgam	-11.7375
Dvani	-11.7377
tizWant	-11.7382
▁parivR	-11.7385
uttam	-11.7399
zwe	-11.7404
purANe	-11.7405
Kar	-11.7406
▁kuryA	-11.7411
▁vigraha	-11.7415
ccE	-11.7416
mAtR	-11.742
vAdya	-11.7426
pIXa	-11.743
aDAti	-11.7433
dUt	-11.7435
ganDi	-11.7439
▁ihA	-11.7443
▁pravraj	-11.7444
riz	-11.7448
tuz	-11.745
harz	-11.7451
▁pAri	-11.7454
wu	-11.7456
▁sadas	-11.7458
vedya	-11.7462
▁kavaca	-11.7463
▁medas	-11.7466
stato	-11.7467
cikits	-11.7469
vanA	-11.747
pitAmah	-11.7474
▁svADyAya	-11.7477
kura	-11.7478
paraH	-11.7479
barhi	-11.7483
pakv	-11.7484
gnay	-11.7487
▁viDinA	-11.7488
hAsa	-11.749
▁utpala	-11.749
samanvita	-11.7491
mardya	-11.7493
▁tAdRSa	-11.7493
▁gOrava	-11.7498
▁cakAra	-11.75
lavaNa	-11.7501
mAlA	-11.7502
gamya	-11.7503
viha	-11.7503
gacCa	-11.7505
pramANa	-11.7506
daSa	-11.7507
▁dAsa	-11.7512
asti	-11.7513
varja	-11.7515
▁vAyav	-11.7519
gAn	-11.7522
▁viBIzaNa	-11.7522
▁rAjarzi	-11.7523
▁vAlukA	-11.7524
vena	-11.7526
jQAnA	-11.7531
pUrv	-11.7533
kzar	-11.7535
priyA	-11.7536
etat	-11.7536
▁nASay	-11.7536
sRp	-11.7536
Buvan	-11.7539
sved	-11.7541
odBava	-11.7542
▁praNI	-11.7544
saMBava	-11.7546
bAN	-11.755
▁kzatriyA	-11.7558
sparS	-11.7563
vic	-11.7572
pAlA	-11.7573
tejas	-11.7578
mAtr	-11.7579
▁devAnAm	-11.7581
▁Rkza	-11.7586
ntam	-11.7586
jalA	-11.7589
▁kzema	-11.7591
▁saMyam	-11.7595
▁miTuna	-11.7597
▁daMS	-11.7598
▁Sarva	-11.7601
Adizu	-11.7607
Ojas	-11.7609
hani	-11.761
▁samAsa	-11.761
▁yezA	-11.761
▁anava	-11.7612
tura	-11.7616
▁tacca	-11.762
▁itTam	-11.7625
▁SvetA	-11.7628
papAta	-11.763
▁utpAday	-11.7634
yATa	-11.7636
oktaM	-11.764
▁anugraha	-11.7641
yuga	-11.7642
kAraNam	-11.7643
▁aDipati	-11.7647
smAd	-11.7652
eSAn	-11.7652
utpAda	-11.7654
Kil	-11.7655
▁IkzaNa	-11.7661
lana	-11.7667
muKy	-11.7668
Sraya	-11.7671
spRh	-11.7673
sahA	-11.7674
SIl	-11.7675
jyezW	-11.7676
lubD	-11.7676
tamaH	-11.7677
▁vraja	-11.7678
▁varzA	-11.7679
▁vivAha	-11.7681
▁krudDa	-11.7682
praveSa	-11.7686
▁pannaga	-11.7686
jajQe	-11.7689
▁samAdA	-11.7689
▁dyAvApRTivI	-11.7694
▁BaktyA	-11.7695
▁aBidru	-11.7699
pyA	-11.7701
smAn	-11.7702
▁aBizic	-11.7711
▁pOr	-11.7715
duHKa	-11.7716
▁tavA	-11.7717
indriy	-11.7717
devI	-11.7718
▁nizad	-11.7719
daMzwr	-11.7725
▁aSuBa	-11.7728
▁BUtAnA	-11.7729
▁pariNAma	-11.7729
pakzi	-11.773
▁ekAnta	-11.773
kANXa	-11.773
ozN	-11.7732
nivart	-11.7738
kAQcan	-11.7742
maDyA	-11.7745
▁duHSAsana	-11.7746
▁divAkara	-11.7753
SrAva	-11.7754
SIla	-11.7766
▁Ayur	-11.7774
Iyas	-11.7776
▁vikram	-11.7777
saMjQa	-11.7778
patnI	-11.7778
yuDA	-11.778
▁Atura	-11.7783
uza	-11.7784
SRFga	-11.7785
mUrti	-11.779
▁nakta	-11.7793
BaFga	-11.7794
DAnya	-11.7797
▁prAQjali	-11.7798
▁caturviDa	-11.7801
▁asmA	-11.7803
▁carman	-11.7806
▁triguNa	-11.7808
sUt	-11.7816
▁yajQe	-11.7822
▁brAhma	-11.7829
tataH	-11.783
cAraNa	-11.7833
▁guwikA	-11.7833
pEt	-11.7837
tapas	-11.7838
lep	-11.7839
jRmB	-11.784
ArDa	-11.7843
yanty	-11.7844
▁izvAsa	-11.7854
▁AlaB	-11.7858
▁upasaM	-11.7859
▁satkR	-11.7859
▁yuvan	-11.786
krAma	-11.7875
▁mardayet	-11.7875
gocar	-11.7879
kya	-11.788
▁atr	-11.7881
vAMs	-11.7885
pakva	-11.7892
▁yajQA	-11.7892
▁aSman	-11.7892
rUpiN	-11.7893
▁saMtApa	-11.7895
vRdDa	-11.7898
▁ajQAna	-11.7907
▁niruD	-11.7907
▁niSi	-11.7907
Saly	-11.7908
tyE	-11.7915
Bavizya	-11.7918
▁saMgam	-11.7919
▁spR	-11.7919
▁caNXa	-11.792
dvAra	-11.7921
netra	-11.7923
▁aQjali	-11.7927
Ahva	-11.7931
▁arday	-11.7932
▁pravara	-11.7934
jara	-11.7935
▁vyapa	-11.7937
BUmi	-11.7939
▁medinI	-11.7939
▁niveSay	-11.7941
▁imAM	-11.7944
prApta	-11.7944
karot	-11.7945
ntaram	-11.7948
▁nirgam	-11.7953
Ek	-11.7953
▁Sozay	-11.7954
Sigru	-11.7956
▁upasaMkram	-11.7957
▁utpat	-11.7964
mAnam	-11.7966
▁paNXita	-11.7968
candana	-11.7969
zita	-11.7972
rezu	-11.7972
▁Sram	-11.7982
▁paScAd	-11.7983
cCad	-11.7988
▁namaskR	-11.7989
vraN	-11.7991
maDya	-11.7995
mUzA	-11.7996
nArAyaN	-11.7997
▁tAXay	-11.8
parivAr	-11.8007
SiraH	-11.8008
▁nAnya	-11.8009
▁saMyuge	-11.801
▁jIvan	-11.801
▁ityuktvA	-11.801
▁pAyay	-11.8014
▁may	-11.802
▁jvalan	-11.8021
▁kzipet	-11.8022
▁puras	-11.8025
▁sarvataH	-11.8026
▁mahAtmA	-11.8026
▁aDvara	-11.8032
muttamam	-11.8032
▁Ikz	-11.8033
▁anuprAp	-11.8044
▁yasmAd	-11.8049
▁rukma	-11.8051
ruNA	-11.8061
rut	-11.8062
dvaya	-11.8063
dine	-11.8066
vivar	-11.8066
▁tenEva	-11.8066
▁Sulba	-11.8081
siMha	-11.8083
▁ayuta	-11.8088
▁upAdA	-11.8092
▁udAra	-11.8093
▁prakIrtay	-11.8099
dAh	-11.8101
▁sampUjay	-11.8102
aF	-11.8104
Goz	-11.8107
▁kArmuka	-11.8107
▁vihR	-11.8109
garBA	-11.8113
vAhin	-11.8113
maDyam	-11.8116
▁nAmnA	-11.8118
▁kuQjara	-11.8126
taram	-11.8127
▁paTi	-11.813
Ast	-11.813
▁rAvaN	-11.8132
▁kAmay	-11.8135
▁aFguli	-11.8136
jvAl	-11.8139
▁prativac	-11.8142
saro	-11.8142
▁palASa	-11.8143
EzA	-11.815
puNy	-11.8153
▁kecid	-11.8155
kowi	-11.8157
▁evaMviDa	-11.8157
sTito	-11.8158
▁SravaNa	-11.8159
rasAyan	-11.8161
▁ih	-11.8165
ruha	-11.8166
mAtrA	-11.8167
▁azwama	-11.8168
jagrAha	-11.8172
▁syAn	-11.8172
hAni	-11.8173
SravaN	-11.8174
▁hare	-11.8174
toda	-11.8175
▁Iray	-11.8177
kzaye	-11.8177
▁ArADay	-11.8177
vAri	-11.8183
okta	-11.8184
kriya	-11.8185
▁kzipraM	-11.8192
devatA	-11.8199
▁kurvant	-11.8201
rAw	-11.8202
anAt	-11.8203
rADa	-11.8204
Fgula	-11.8205
▁kaccit	-11.8208
vezwa	-11.8208
kruS	-11.821
▁sukRta	-11.8211
▁cUrNay	-11.8213
▁SAk	-11.8215
itO	-11.8222
▁veSman	-11.8223
▁janaka	-11.8224
svarUp	-11.8225
▁samutTA	-11.8242
▁SacI	-11.8244
saMkrudD	-11.8245
▁durAtman	-11.8252
bimb	-11.8256
rUkz	-11.826
▁AXya	-11.8265
▁anvA	-11.8268
▁gOrI	-11.8268
nayan	-11.8273
▁suyoDana	-11.8281
pratizeDa	-11.8281
SarIr	-11.8284
citA	-11.8288
▁apekz	-11.8292
varuN	-11.8293
▁pAcay	-11.8296
▁candramas	-11.8301
▁anupra	-11.8303
▁nirmala	-11.8303
▁tyaktvA	-11.8318
palAy	-11.8321
▁itihAsa	-11.8328
tezAM	-11.8336
ntI	-11.834
▁roza	-11.8342
NXikA	-11.8349
mUlA	-11.8351
▁Palguna	-11.8357
▁vAhinI	-11.8357
▁pApman	-11.8357
syEva	-11.8358
▁vEzNava	-11.8364
▁puruzottama	-11.8373
▁maru	-11.8373
rakzaNa	-11.8378
▁dveza	-11.8381
kzINa	-11.8382
nupa	-11.8385
▁sadyo	-11.8386
vacan	-11.8387
▁mRgA	-11.839
▁Akram	-11.8392
▁gamBIra	-11.8396
AMSa	-11.8398
▁Ara	-11.8398
maBi	-11.8402
▁Agneya	-11.8405
▁mahAbAho	-11.841
▁aSvameDa	-11.8411
BAgya	-11.8413
▁apari	-11.8413
mIti	-11.8415
hite	-11.8415
▁antaka	-11.842
BRta	-11.8424
aScA	-11.8424
Anna	-11.8426
▁Sriya	-11.8426
sTiti	-11.8427
▁hanumant	-11.8429
▁vAyur	-11.8431
▁marman	-11.8432
pArSv	-11.8432
▁guda	-11.8433
▁tAsA	-11.8434
▁kiMca	-11.8434
Astra	-11.8438
viroD	-11.8439
Iha	-11.8442
ndro	-11.8442
KaNXa	-11.8444
▁tayor	-11.8446
▁Danvantari	-11.8447
pitt	-11.8455
▁anantaram	-11.8458
▁upaDA	-11.8459
▁sic	-11.846
AdyA	-11.8466
▁Rtvij	-11.8466
▁yaTAkramam	-11.8466
▁arSas	-11.8468
SoDan	-11.8479
▁suvrata	-11.8481
▁kozWa	-11.85
▁vismi	-11.8501
▁saMkruD	-11.8503
mUXa	-11.8504
daMSa	-11.8505
lup	-11.8505
paSyan	-11.8505
SAlin	-11.8507
ukA	-11.8509
Ananda	-11.851
rTi	-11.8513
▁sTit	-11.8517
▁tasmAn	-11.8517
▁sambanDa	-11.8517
krand	-11.852
▁kukzi	-11.8525
▁sUtaputra	-11.8526
▁dayA	-11.8536
ukta	-11.8537
ASI	-11.8538
▁aSana	-11.8541
▁paruza	-11.8541
taNXul	-11.8543
ASraya	-11.8545
grahaNa	-11.8548
▁Urj	-11.8563
▁mAray	-11.8564
▁DArmika	-11.8574
pizw	-11.8575
saFg	-11.8576
marSa	-11.8576
yABi	-11.8577
jAl	-11.8578
▁Avantya	-11.8579
▁pAtAla	-11.858
lita	-11.8583
▁rajata	-11.8586
▁vezway	-11.8594
rAji	-11.8595
lohit	-11.8597
vAso	-11.8598
▁SrImAn	-11.8598
▁rasendra	-11.8598
valI	-11.8599
▁Alaya	-11.8599
dIpa	-11.8599
▁samAcar	-11.86
lEr	-11.86
vAla	-11.8609
▁jambIra	-11.8616
surA	-11.8617
▁BadrA	-11.8618
▁DarmAtmA	-11.862
ArikA	-11.8622
▁duzkara	-11.8627
ruj	-11.8629
tEl	-11.8632
AKyA	-11.8633
▁mohay	-11.8634
dvez	-11.8635
▁rudDvA	-11.8635
▁ahaMkAra	-11.8641
Soz	-11.8645
yAja	-11.8648
▁asO	-11.8649
Buja	-11.865
Gora	-11.8659
odak	-11.8659
▁pE	-11.8662
▁bRhatI	-11.8662
Sabd	-11.8665
▁raktA	-11.8679
sAhasr	-11.868
kIrt	-11.8683
mahezvAs	-11.8693
Sruta	-11.8693
▁sAvitrI	-11.8694
Amya	-11.8701
reya	-11.8708
kaku	-11.8709
▁kRtAQjali	-11.8712
vijay	-11.8718
▁suBaga	-11.8718
▁Uti	-11.8721
orDva	-11.8732
▁BUzay	-11.8732
▁vasanta	-11.8734
nABa	-11.8735
▁kaSyapa	-11.8737
▁trayodaSa	-11.8742
tattv	-11.8744
jin	-11.8746
yAtma	-11.8747
varjita	-11.8757
▁nAva	-11.8759
dAnav	-11.8759
▁Boja	-11.8761
deSA	-11.8766
▁paSUn	-11.8769
Ity	-11.877
▁hRdya	-11.877
meda	-11.8772
▁varAha	-11.8772
▁aBiBU	-11.8773
▁rAmo	-11.8779
▁pOruza	-11.878
ruNa	-11.8784
AByAm	-11.8787
tUrNaM	-11.8789
▁brahmacArin	-11.8789
▁dvAdaSA	-11.879
▁BavatA	-11.8794
▁bahir	-11.8795
▁tridoza	-11.88
▁nyAya	-11.88
▁Agata	-11.8804
▁sati	-11.8805
hRta	-11.8807
aFk	-11.8807
UrDva	-11.8809
samRdD	-11.881
DvaMs	-11.8811
yugma	-11.8816
▁vinyas	-11.8823
SilA	-11.8824
gAtr	-11.8827
hAri	-11.8827
badar	-11.8827
▁prahRz	-11.8829
Daman	-11.8834
▁vIryavAn	-11.8834
naGa	-11.8855
▁nAgara	-11.8858
raTe	-11.886
▁dyUta	-11.8871
Eza	-11.8871
▁Rzaya	-11.8873
▁prANAn	-11.8873
▁cod	-11.8883
cetanA	-11.8884
▁cEvA	-11.8893
▁tapoDana	-11.8905
▁Satakratu	-11.8906
▁vRzA	-11.8906
suKA	-11.8912
kAro	-11.8914
▁tasy	-11.8915
pravRtt	-11.8918
gAh	-11.8921
sAyak	-11.8922
▁pravakzyAm	-11.8925
▁rAD	-11.8927
garu	-11.8931
saMSay	-11.8932
kAlam	-11.8934
ditya	-11.8934
raTo	-11.8934
paQcASat	-11.8935
Sakt	-11.8939
mah	-11.894
jE	-11.8942
itavya	-11.8945
vAF	-11.8945
▁paSyAmi	-11.8945
▁hasti	-11.8945
▁kumArI	-11.8947
dyuti	-11.8958
vartamAn	-11.896
▁pravartay	-11.8965
EkA	-11.8966
yamANA	-11.8971
padma	-11.8974
muQca	-11.8976
gacCant	-11.898
▁kimarTa	-11.8985
piFgal	-11.8986
▁pibe	-11.8988
▁Garma	-11.8989
▁skanda	-11.8989
▁svaDarma	-11.8993
▁bahula	-11.8996
▁golaka	-11.8997
ratA	-11.8997
▁rase	-11.9
yukte	-11.9007
▁Sri	-11.902
▁paQcadaSa	-11.9023
▁mUrC	-11.9024
leKa	-11.9028
mRtyu	-11.9028
amBo	-11.9028
▁vimarday	-11.9033
meti	-11.9036
▁vinI	-11.9038
kuzW	-11.9041
▁suraBi	-11.9043
uh	-11.9043
▁nUna	-11.9049
srA	-11.9051
▁vacanam	-11.9051
vyaya	-11.9059
kanyA	-11.906
dIrG	-11.9061
▁parivAray	-11.9063
NIya	-11.9064
▁gatim	-11.9065
nty	-11.907
▁citrA	-11.9082
▁pratizWApay	-11.9085
nIka	-11.9087
aBAzata	-11.9095
caturT	-11.9096
▁BImasen	-11.9099
vyADi	-11.9103
▁jambu	-11.9105
▁aNXa	-11.9107
▁pratiBA	-11.9108
gU	-11.9111
mAly	-11.9119
duryoDan	-11.9125
daMzwra	-11.9127
jIvin	-11.9129
▁apAna	-11.9134
▁tumula	-11.9142
▁hutASana	-11.9144
▁vilap	-11.9148
TavA	-11.915
bil	-11.9162
asaH	-11.9164
Arogya	-11.9172
▁aDama	-11.918
SUny	-11.918
guNAn	-11.9187
syeva	-11.919
raQjana	-11.9193
sarja	-11.92
zyasi	-11.92
▁vanaspati	-11.9204
pekz	-11.9207
cintya	-11.9208
▁tAlaka	-11.9211
vimukt	-11.9213
Binn	-11.9214
▁Kalva	-11.9216
trayaM	-11.9216
▁dvAr	-11.9218
▁kartum	-11.9221
Bikz	-11.9222
▁aDunA	-11.9222
▁agre	-11.9224
▁durbala	-11.9227
▁nirdiS	-11.9228
▁padam	-11.9229
vAka	-11.924
▁punas	-11.9242
▁paramezWin	-11.9242
▁bahUn	-11.9243
▁purAtana	-11.9245
▁jvAlA	-11.9248
jag	-11.9252
▁samAKyA	-11.9253
vaFg	-11.9258
yojana	-11.9261
▁net	-11.9261
▁prAcI	-11.9262
▁padmA	-11.9263
suto	-11.9264
▁SaSa	-11.9264
▁SAnt	-11.9266
vrAt	-11.9269
▁rAjann	-11.927
kArz	-11.9288
▁avatR	-11.93
▁BAj	-11.9301
▁manaHSilA	-11.9303
▁aBihan	-11.9304
Sok	-11.9305
prayog	-11.9306
sPowa	-11.9309
vadanti	-11.9309
▁asmAka	-11.931
▁asur	-11.9311
nASana	-11.9312
kArI	-11.9314
hAs	-11.9316
pUjita	-11.9321
▁velA	-11.9325
kzAr	-11.9326
▁agratas	-11.9326
▁anAdi	-11.9327
▁viSAla	-11.9327
DIyate	-11.9327
▁BUyaH	-11.9328
▁anuzWA	-11.9328
▁etan	-11.9336
smAka	-11.9336
▁Svan	-11.9339
▁baB	-11.9343
▁gANXIva	-11.9344
▁aBivAday	-11.9344
▁dvijasattama	-11.9345
▁himavant	-11.9347
▁sTir	-11.935
reKA	-11.9357
tAt	-11.9359
▁sIm	-11.9359
▁Bavaty	-11.936
▁nizWA	-11.9362
yot	-11.9363
▁upaspRS	-11.9366
pekza	-11.9366
▁pUti	-11.9366
▁amRtA	-11.9368
mUtra	-11.9372
Scit	-11.9373
▁jI	-11.9378
BUr	-11.9382
▁saMtap	-11.9383
▁agastya	-11.9385
catvAri	-11.9385
▁rAjQo	-11.9385
▁Ahan	-11.9386
▁SrUyat	-11.9387
vRkz	-11.9388
nmahA	-11.9389
praBAv	-11.9391
vare	-11.9396
vAji	-11.9399
nto	-11.9404
inam	-11.9408
rzay	-11.9414
▁santi	-11.9415
rajaH	-11.9419
▁vAcay	-11.942
▁sahitA	-11.9422
vazaw	-11.9423
▁Apo	-11.9424
nIl	-11.9428
gAt	-11.943
▁janapada	-11.9431
▁saKya	-11.9432
▁yacca	-11.9435
▁puraskR	-11.9436
▁viruD	-11.9438
▁hEma	-11.9444
miSr	-11.9446
▁kAMsya	-11.9447
▁rujA	-11.9447
nemi	-11.9449
▁praTamA	-11.9453
▁Avaha	-11.9455
▁nikRt	-11.9455
Ips	-11.9461
kavac	-11.9464
vartata	-11.9465
▁piba	-11.9465
▁upavAsa	-11.9474
nAdi	-11.9475
kuQc	-11.9477
▁viparyaya	-11.9478
▁taj	-11.9478
▁aByAsa	-11.9479
str	-11.948
▁krIXA	-11.948
▁parizvaj	-11.9488
IkRta	-11.9491
▁sTAvara	-11.9498
SrezWA	-11.9507
▁BIru	-11.9507
viDya	-11.9507
▁divOkas	-11.9508
▁rADeya	-11.951
▁dAsI	-11.9512
lasa	-11.9512
▁ityarTa	-11.9513
▁saMdeha	-11.9519
yamAne	-11.9519
mUrDA	-11.9521
Siv	-11.9524
▁svacCa	-11.9524
IkaraNa	-11.9525
praty	-11.9533
gaNXa	-11.9537
varca	-11.9539
▁svAgata	-11.9543
▁vESvAnara	-11.9543
▁prAdur	-11.9544
stv	-11.9551
vatsa	-11.9555
mity	-11.9562
vila	-11.9566
▁anuga	-11.9566
▁pArvatI	-11.9571
▁Srotu	-11.9572
haridrA	-11.9573
▁vyavasA	-11.9574
▁pava	-11.9577
▁viGna	-11.9579
lola	-11.958
sPuw	-11.9582
dravE	-11.9589
▁samAsAday	-11.9591
AsIna	-11.9594
▁marica	-11.9595
nuga	-11.9598
▁yAvan	-11.9599
huta	-11.96
▁hovAc	-11.9603
▁maDurA	-11.9603
▁vamana	-11.9603
SaFka	-11.9603
Danv	-11.9608
gOr	-11.9612
kAsIsa	-11.9612
▁gATA	-11.9616
▁agrya	-11.9619
▁mitr	-11.962
▁prAsAda	-11.9621
Fgo	-11.9621
▁SuBra	-11.9623
loman	-11.9624
▁arizwa	-11.9627
budDa	-11.963
▁AvRt	-11.9631
kare	-11.9635
▁etAvat	-11.9636
iNA	-11.9637
▁anantara	-11.9637
hArya	-11.9638
▁ucita	-11.9638
▁saKA	-11.9649
▁atri	-11.9651
kaQcuk	-11.9655
pUjya	-11.966
▁pumAn	-11.966
sEnDav	-11.9661
tanu	-11.9663
saMtat	-11.9665
▁ikzu	-11.9665
▁kAkutsTa	-11.9675
▁mahizI	-11.9678
▁vizNur	-11.9682
▁vyati	-11.9685
dButa	-11.9688
hy	-11.969
▁tRpti	-11.9693
▁svasTa	-11.9695
veta	-11.9696
▁Danya	-11.9697
saMjQita	-11.9697
giri	-11.9713
▁pUrvaka	-11.9714
▁Cattra	-11.9719
llok	-11.9721
inAm	-11.9723
viveSa	-11.9725
kumBa	-11.9726
dRSya	-11.9727
▁vawa	-11.9728
▁udgA	-11.9728
KaNXe	-11.9731
BAvita	-11.9732
itEr	-11.9736
AsIn	-11.9738
prasann	-11.974
pIXA	-11.974
▁BaradvAja	-11.9744
▁prayojana	-11.9745
yasva	-11.9746
▁paTyA	-11.9748
▁budDimat	-11.9755
▁vizam	-11.9755
sTite	-11.9755
▁sOBAgya	-11.976
piNXa	-11.9761
▁prAyaScitta	-11.9764
hastA	-11.9766
▁yAta	-11.9767
tyeva	-11.977
niScaya	-11.9774
▁brAhmaNo	-11.9775
nirmuc	-11.9777
rNe	-11.9777
▁yuvA	-11.9779
▁SuBam	-11.9779
nimitt	-11.9779
▁SAriputra	-11.9781
saMGA	-11.9786
▁kevalam	-11.9791
▁niroDa	-11.9792
▁prayacC	-11.9794
▁kapila	-11.9795
▁savana	-11.9798
▁SUrA	-11.98
▁mahAraTA	-11.9809
▁sUryA	-11.9811
▁divas	-11.9816
utTA	-11.9821
jjA	-11.9827
▁BAradvAja	-11.9829
▁sahasraSa	-11.9832
datte	-11.9839
banDu	-11.9842
mRz	-11.9844
▁saMgrAme	-11.9846
KyAta	-11.9851
saMniB	-11.9853
▁pizwi	-11.9857
Arta	-11.9859
▁badDvA	-11.9867
▁uraga	-11.9868
ntarA	-11.987
▁balI	-11.9875
svapn	-11.9877
mama	-11.9879
manyu	-11.9879
▁aFgada	-11.9888
▁prAjApatya	-11.9888
▁trIN	-11.9889
▁amarza	-11.9889
▁nivAray	-11.9889
krIX	-11.989
Pulla	-11.9891
Arh	-11.9892
iko	-11.9893
ottamA	-11.9896
amANa	-11.9896
ecca	-11.9901
pratima	-11.9902
sakt	-11.9903
▁aGa	-11.9907
▁lIlA	-11.9911
gul	-11.9915
ApyAy	-11.9916
▁viBo	-11.9918
▁hotA	-11.9919
rAjo	-11.9921
kzOdr	-11.9929
▁mAdrI	-11.9932
▁SiKara	-11.9937
▁Amantray	-11.9937
pratizWit	-11.9938
▁nigad	-11.9938
▁pOtra	-11.9939
▁duzkRta	-11.9942
▁BrAj	-11.9943
Sakun	-11.9944
▁Bakzya	-11.9945
▁upekz	-11.995
nIta	-11.9951
mAkzika	-11.9953
grahA	-11.9953
SoBit	-11.9955
▁apriya	-11.9956
▁ucca	-11.9957
▁kAvya	-11.996
▁prokz	-11.9963
▁tataS	-11.9963
pIta	-11.9964
saMyog	-11.9966
gupta	-11.9967
mRtA	-11.9968
▁utsah	-11.9968
▁revAKaNX	-11.9969
▁pravartate	-11.997
▁Avarta	-11.9973
▁samyaksambudDa	-11.9975
▁praNipat	-11.9975
lopa	-11.9975
▁yugA	-11.9986
nEva	-11.9989
azwa	-11.9995
▁anarTa	-11.9995
▁tras	-11.9996
cCada	-12.0002
▁aSoka	-12.0009
sattam	-12.001
▁prahA	-12.0012
saMjQ	-12.0013
sUtra	-12.0021
hInA	-12.0025
Arka	-12.0027
aje	-12.0029
izye	-12.0034
▁brahmaNA	-12.0034
▁raQjay	-12.0035
sAri	-12.0037
▁mayUra	-12.004
▁parasparam	-12.0043
astA	-12.0046
▁SiSira	-12.0049
Apnot	-12.005
karzaNa	-12.0051
▁prayat	-12.0052
nidAna	-12.0057
▁niSAmay	-12.0057
▁BikzA	-12.0058
▁aByud	-12.0059
▁mahendra	-12.0064
bindu	-12.0065
psu	-12.0065
Bagn	-12.0065
▁lalAwa	-12.0069
▁Endra	-12.0069
jIvana	-12.0072
EnaM	-12.0076
muKo	-12.0076
uttare	-12.0083
▁DErya	-12.0086
nirvANa	-12.0086
aDaH	-12.0088
sTitaM	-12.009
citt	-12.009
▁yastu	-12.0091
SarIra	-12.0092
▁kurvIt	-12.0096
vartante	-12.0096
▁tiryaQc	-12.0106
▁asita	-12.0106
ESvary	-12.0108
▁Acam	-12.0109
▁jyotir	-12.011
trika	-12.0111
vaMSa	-12.0113
smAt	-12.0115
Adayo	-12.0117
muh	-12.0118
▁yatrA	-12.0119
arda	-12.012
▁brahmavarcas	-12.0122
dvayam	-12.0122
dRSa	-12.0126
▁praSna	-12.0129
sarpiz	-12.0131
BAvya	-12.0131
▁aBimuKa	-12.0131
▁suganDi	-12.0135
▁tal	-12.0135
▁gotra	-12.0138
anuttamam	-12.014
vicitr	-12.0141
jyoti	-12.0143
caran	-12.0147
▁apahR	-12.0148
▁cApya	-12.0149
vyAKyAsyAmaH	-12.015
▁durDarza	-12.0151
▁viviDA	-12.0151
yazwi	-12.0152
SiKar	-12.0156
ASray	-12.016
jijQAs	-12.016
▁ASaya	-12.0161
SrAnt	-12.0162
izNu	-12.0168
▁taruNa	-12.0173
▁uz	-12.0175
▁kRpA	-12.0176
▁kzura	-12.0178
▁kAlo	-12.0191
mahi	-12.0195
▁pramuKa	-12.0198
uta	-12.0199
▁lal	-12.0201
satva	-12.0202
vRttAnta	-12.0204
▁yUya	-12.0204
pRcCa	-12.0205
▁kecit	-12.0207
SudDi	-12.021
catuH	-12.0213
muKam	-12.0214
▁BUyizWa	-12.0217
▁pAdO	-12.0227
▁java	-12.0227
SradD	-12.0228
▁veDay	-12.0228
▁pizwvA	-12.024
▁DAtR	-12.0248
hiMs	-12.0249
saMyutam	-12.0253
▁pArzata	-12.0261
▁vasuMDarA	-12.0261
▁havir	-12.0267
kleSa	-12.0269
viDe	-12.0276
vRkzA	-12.0282
staTEva	-12.0284
▁rucya	-12.0284
▁kirIwin	-12.0287
ritaH	-12.0291
▁SarAva	-12.0291
▁rakzo	-12.0293
▁Dur	-12.0293
badDA	-12.0294
voca	-12.0299
▁copa	-12.03
parya	-12.0303
▁satyA	-12.0305
J	-12.0307
▁udaQc	-12.0309
vaktra	-12.0309
lamBa	-12.0311
▁ganDarvA	-12.0319
▁SyAmA	-12.0319
daya	-12.032
▁duHKA	-12.0321
▁pANXavAnA	-12.0322
▁tacCrutvA	-12.0328
mayaH	-12.033
BaraNa	-12.033
▁rohiNI	-12.0332
▁nazwa	-12.034
sADana	-12.0343
▁sureSvar	-12.0346
▁raQj	-12.0348
GAtin	-12.035
▁sOmitri	-12.0351
vyakta	-12.0353
sinD	-12.036
Ardr	-12.0365
▁drAvay	-12.0367
BIta	-12.0368
▁pitu	-12.0372
spanda	-12.0375
▁pratyud	-12.0375
▁samRD	-12.0376
DAraNA	-12.0377
cArya	-12.0388
▁pezay	-12.0391
Ety	-12.0391
janman	-12.0392
▁saMgama	-12.0393
▁budDir	-12.0395
▁parikIrtay	-12.0396
▁grahaNI	-12.04
▁hiMsA	-12.0404
▁tawa	-12.0405
rAva	-12.0406
▁suparNa	-12.0406
vRzwi	-12.0407
▁asmi	-12.0408
daDe	-12.0411
vRttA	-12.0415
▁vizAda	-12.0425
Braka	-12.0427
karizy	-12.0428
▁catuzwaya	-12.0429
parvata	-12.0437
rAjasya	-12.044
mitrA	-12.0441
bRh	-12.0446
viSizwa	-12.0448
▁mAtara	-12.0449
▁amala	-12.0449
sUry	-12.0454
▁jagatI	-12.0455
pAli	-12.0458
bata	-12.0464
▁viSram	-12.0465
cyuta	-12.0466
▁kAQjika	-12.0468
▁pariDA	-12.0476
vajra	-12.0476
jIrN	-12.0479
▁ahorAtra	-12.0488
bAD	-12.0489
yuktam	-12.0491
▁suBUte	-12.0491
meh	-12.0491
▁gOra	-12.0492
▁aBinand	-12.0496
vApya	-12.0505
recan	-12.0507
▁anuttara	-12.0511
▁azwAdaSa	-12.0511
▁nimna	-12.0513
▁acCA	-12.0516
trANa	-12.0517
▁sarvaBUt	-12.0518
gAnDAr	-12.052
mAtreN	-12.052
▁pANXavAn	-12.0526
▁manuja	-12.0527
nivAs	-12.0528
jaFG	-12.0529
▁vinASana	-12.0537
izyate	-12.0539
tAny	-12.0539
vyasan	-12.054
▁gajA	-12.0554
▁mitrAvaruN	-12.0556
▁kriyate	-12.0556
▁samADA	-12.0572
BaFg	-12.0572
pRc	-12.0574
SaktyA	-12.0577
jihma	-12.058
▁gAnDArI	-12.058
hrAd	-12.058
▁muNXa	-12.058
hom	-12.0584
DOt	-12.0591
dravy	-12.0594
▁utTa	-12.0597
nIla	-12.0597
maDv	-12.0599
saMskAr	-12.0603
pUjit	-12.0607
prasAdA	-12.0611
▁nizkram	-12.0612
▁SItA	-12.0617
▁SrAvay	-12.0618
bah	-12.0622
dRzwi	-12.0623
oktA	-12.0628
▁nibu	-12.0628
▁pawu	-12.0628
▁vEkrAnta	-12.0632
▁krudDo	-12.0634
pravizw	-12.0635
▁adRSya	-12.0638
vraNa	-12.0639
rajo	-12.064
MSo	-12.0642
▁mUlya	-12.0648
▁draviNa	-12.0648
▁saMnipAta	-12.065
▁hava	-12.0651
▁pAnIya	-12.0653
pUta	-12.0658
▁gO	-12.0658
▁kadA	-12.066
saMjQaka	-12.0661
▁syur	-12.0662
taTA	-12.0666
vanto	-12.0669
yogin	-12.0669
▁cAnu	-12.067
puzpI	-12.0671
▁brAhmaNAn	-12.0671
▁dasyu	-12.0672
▁niSAcara	-12.0673
Bara	-12.0675
▁yaTokta	-12.068
▁aSvinA	-12.0682
▁prasah	-12.0682
▁uttamA	-12.0682
pez	-12.0689
▁vidDi	-12.0689
Asane	-12.069
yogo	-12.0691
vaQc	-12.0691
▁annAdya	-12.0695
▁kokil	-12.0697
▁niveSana	-12.0699
mayI	-12.07
▁karmAN	-12.0702
kawuk	-12.0704
▁BAjana	-12.0707
▁mahAtmAna	-12.0709
bale	-12.0711
▁hanta	-12.0711
sada	-12.0712
▁upadeSa	-12.0713
BIzm	-12.0717
vrIX	-12.0719
▁adRzwa	-12.0719
▁saMsRj	-12.0719
▁aFganA	-12.0721
▁puzkar	-12.0723
▁gacCet	-12.0725
vAca	-12.0728
SrezW	-12.0734
▁anurUpa	-12.0738
▁tasminn	-12.074
▁paryA	-12.0741
▁prasava	-12.0743
varaNa	-12.0744
▁prasR	-12.075
karaNA	-12.075
▁saMhR	-12.0756
▁upakram	-12.076
▁garh	-12.0762
tRzN	-12.0763
▁puraMdara	-12.0765
kleda	-12.0765
▁bahuviDa	-12.0772
▁garj	-12.0774
▁kazwa	-12.0776
ottam	-12.0782
▁GorA	-12.0783
kartR	-12.0788
▁yamunA	-12.079
BiDA	-12.0791
itAni	-12.0792
▁pitur	-12.0799
▁pAcana	-12.08
▁prAptA	-12.0801
saMvatsar	-12.0802
▁DArtarAzwr	-12.081
OzaDI	-12.0813
pavitr	-12.0814
yantA	-12.0816
Apaha	-12.0817
kesara	-12.0823
▁sUkta	-12.0825
▁gacCe	-12.0827
prekz	-12.0833
▁sraj	-12.0836
▁CAday	-12.0838
rasE	-12.0842
Bavet	-12.0843
syopa	-12.0844
▁cakzur	-12.085
adBir	-12.0852
puNya	-12.0855
▁sAkzin	-12.0856
▁upayuj	-12.0857
cAla	-12.0859
▁vistR	-12.086
▁savitA	-12.0861
▁GrANa	-12.0861
▁paSyant	-12.0863
▁bahuSas	-12.0863
▁katama	-12.0868
▁dAtR	-12.087
Sukl	-12.0876
roz	-12.0881
yAha	-12.089
vRtt	-12.0893
mAty	-12.0898
BAvo	-12.09
▁Aroha	-12.0905
▁etAn	-12.0906
▁tridaSa	-12.0907
▁kElAsa	-12.0907
tatpara	-12.0909
hvaya	-12.091
▁drAkzA	-12.091
rudDa	-12.0912
▁sadyaH	-12.0915
▁prahR	-12.0919
▁kaFka	-12.0921
▁yaSo	-12.0923
▁jAyA	-12.0923
hArA	-12.0926
Scatur	-12.0927
▁sveday	-12.0931
▁antaHpura	-12.0931
nantara	-12.0937
▁jaGAn	-12.0937
uktam	-12.0937
▁tadanu	-12.0938
▁gola	-12.0939
cetasa	-12.0939
▁nipAtay	-12.094
▁akRta	-12.0945
▁roman	-12.0954
▁jayadraTa	-12.0955
pANXu	-12.0956
▁kuta	-12.0958
▁yuzmA	-12.096
▁cEna	-12.0963
vizaya	-12.0967
sneha	-12.0973
▁jAgar	-12.0973
▁vAcaM	-12.0975
▁SaSin	-12.0977
▁anU	-12.0978
▁gavAM	-12.098
▁Aja	-12.0981
▁saMKye	-12.0981
▁daSaraTa	-12.0982
muhUrt	-12.0984
▁piSAca	-12.0984
▁vijayA	-12.0989
▁trizu	-12.0989
rNava	-12.099
sarpir	-12.099
caNX	-12.0993
▁brAhmaNe	-12.0998
▁rAkzasI	-12.0998
Ez	-12.1
▁vAQC	-12.1001
sTAnam	-12.1003
▁arGya	-12.1004
vO	-12.1009
kaNwak	-12.1017
Qjali	-12.1021
▁saMniDi	-12.1024
▁vAnarA	-12.1025
rUXa	-12.1027
klizwa	-12.1027
viDAna	-12.1031
rAvaNa	-12.1033
vatsara	-12.1036
SizwA	-12.104
▁yaTAkAma	-12.1044
cintay	-12.1045
vatsala	-12.1045
▁cAnye	-12.1046
sakRd	-12.1048
▁mETilI	-12.106
stvayA	-12.1061
dyota	-12.1062
jagmur	-12.1063
vizNu	-12.1063
mUrDa	-12.1066
marz	-12.1069
▁vINA	-12.1072
palaM	-12.1073
SaW	-12.1074
ApahA	-12.1075
▁kRzi	-12.1075
samIr	-12.1076
▁praNaS	-12.1077
▁nirvap	-12.1083
kIr	-12.1085
▁vinaya	-12.1087
▁mahiza	-12.109
vipul	-12.1097
GRt	-12.11
▁pUzan	-12.11
▁dadAti	-12.11
▁raktapitta	-12.1101
eSvarI	-12.1111
AdIni	-12.1112
▁diSo	-12.1112
▁gomaya	-12.1119
cCed	-12.1119
ekAdaS	-12.1121
▁sarvaBUtAnA	-12.1122
▁samaBi	-12.1122
raTA	-12.1124
▁sanatkumAra	-12.1124
▁yajus	-12.1125
▁paryAya	-12.1125
▁Bavizyant	-12.1132
▁Ahvaya	-12.1135
▁savyasAcin	-12.1149
kzayA	-12.1149
▁virecana	-12.1149
▁devyA	-12.115
▁kzap	-12.1151
▁RNa	-12.1158
hal	-12.1159
▁guNavat	-12.116
gRhNAt	-12.1163
▁nRtya	-12.1168
prakASa	-12.1169
▁sOBadra	-12.1174
keSA	-12.1182
Atmana	-12.1183
▁SaSvat	-12.1184
itena	-12.119
stamBa	-12.1191
sTAnA	-12.1196
▁viXaFga	-12.1198
▁pRzWatas	-12.1202
▁sTala	-12.1209
▁anir	-12.1214
▁sadana	-12.1218
cUX	-12.1222
▁tasmiM	-12.1222
dehA	-12.1226
▁aSani	-12.123
▁patAkA	-12.1231
▁samAgama	-12.1231
Apaham	-12.1233
▁anitya	-12.1236
▁anuBU	-12.1244
▁pRtanA	-12.1247
▁pratisaM	-12.1248
▁ahiMsA	-12.1248
▁rahasya	-12.1256
▁saMgrah	-12.1256
tAmra	-12.1256
▁saptA	-12.1262
tAla	-12.1266
vasTita	-12.1266
▁krI	-12.1268
jalp	-12.1269
cak	-12.127
▁ukTa	-12.1271
mAsa	-12.1271
▁putrI	-12.1271
▁sarvEr	-12.1272
▁kzatt	-12.1273
▁Aropay	-12.1274
▁sAMKya	-12.1276
▁takra	-12.1277
▁prAdurBU	-12.1277
▁AramBa	-12.1277
▁jananI	-12.1278
▁tretA	-12.1279
AnvitA	-12.128
harati	-12.1288
▁viviDAn	-12.129
sEnik	-12.1296
▁atyarTam	-12.1298
▁brahmahatyA	-12.1298
▁arpay	-12.1301
saMjQA	-12.1302
rUpo	-12.1302
jAnan	-12.1309
kroDa	-12.1314
▁moca	-12.1314
Atmani	-12.1319
▁panTA	-12.1321
▁sObala	-12.1321
▁SAnta	-12.1322
▁lOha	-12.1323
AgninA	-12.1323
parAkram	-12.1324
▁abda	-12.1326
tRp	-12.1333
▁prahi	-12.1337
ADik	-12.1342
▁kUpa	-12.1345
▁pratyaQc	-12.1351
gatir	-12.1357
▁Dik	-12.1359
samUh	-12.1359
baBUv	-12.1359
jAla	-12.1361
jaGan	-12.1362
vu	-12.1367
reNA	-12.1368
mRga	-12.1369
▁aDyAtma	-12.1372
▁pradApay	-12.1376
spRS	-12.1376
▁sAhasa	-12.1381
kapAl	-12.1382
amANA	-12.1387
▁tutTa	-12.1392
muktA	-12.1392
▁catuHzazwi	-12.1396
▁vicAraNA	-12.1396
nadI	-12.1397
▁hanu	-12.1397
▁tantu	-12.1398
yojay	-12.1399
▁vakzas	-12.1406
asy	-12.1406
samBava	-12.1408
tarpaN	-12.1409
▁pArTA	-12.1412
▁anuSAs	-12.1415
▁lajjA	-12.1416
▁aFguzWa	-12.1421
AdIn	-12.1422
ranDra	-12.1422
▁kRpaNa	-12.1423
vAsana	-12.1423
▁tAdRS	-12.1425
▁kIwa	-12.1426
▁marIci	-12.1429
kaluz	-12.1431
▁Aji	-12.1441
cakrA	-12.1444
▁tUzNIm	-12.1446
▁SanEH	-12.1446
▁dRX	-12.1448
▁darada	-12.1449
▁kAnana	-12.1449
▁SmaSAna	-12.1449
jQayA	-12.1451
upasTit	-12.1454
kzipta	-12.1457
vimal	-12.1458
vallaBa	-12.1467
▁juhoti	-12.1471
▁SlAG	-12.1471
muKyA	-12.1471
punar	-12.1475
pIXita	-12.1476
▁rodasI	-12.1478
cikitsita	-12.1478
▁SaFkara	-12.1479
▁SUdrA	-12.1479
▁Asad	-12.1482
kovida	-12.1483
▁rahas	-12.149
kOSal	-12.1493
▁gavya	-12.1494
puz	-12.1496
▁sarvapApa	-12.1497
▁vidyADara	-12.1503
bruv	-12.1504
amANo	-12.1505
paw	-12.1509
▁samAsAdy	-12.1511
prokt	-12.1513
SritA	-12.1518
tasTO	-12.1522
▁samprekz	-12.1523
ntika	-12.1534
yUn	-12.1541
tvak	-12.1542
▁pragrah	-12.1543
▁saMvAda	-12.1549
▁vitan	-12.1553
▁Ayasa	-12.1555
ugr	-12.1563
jIvati	-12.1568
durlaB	-12.1568
Bakta	-12.1568
ritam	-12.1569
▁visarjay	-12.1574
krAntA	-12.1575
▁Danvin	-12.1578
▁caturguNa	-12.1579
vez	-12.158
▁ukT	-12.158
AcCAd	-12.1584
paww	-12.1587
▁vrajet	-12.1589
viSat	-12.1593
▁matta	-12.1601
saMDi	-12.161
Ayuzya	-12.161
▁vyavahAra	-12.1611
tvag	-12.1612
▁budDyA	-12.1612
▁Bikzav	-12.1619
ndo	-12.162
▁vyapoh	-12.1624
▁aByarc	-12.1626
▁vikRti	-12.1627
vidDa	-12.1629
▁tApasa	-12.163
Darza	-12.163
▁prAtaH	-12.163
candan	-12.163
▁Samay	-12.1632
▁ityukta	-12.1632
▁samprati	-12.1638
▁kASi	-12.1646
▁devarAja	-12.1648
▁cakru	-12.1651
▁sOBa	-12.1651
syasi	-12.1652
jAFgal	-12.1657
▁vipre	-12.1661
puraHsar	-12.1669
▁rAmA	-12.1671
▁pAtaka	-12.1671
▁parjanya	-12.1675
GRz	-12.1675
vatyA	-12.1677
prApt	-12.168
▁uktA	-12.1681
▁azwaka	-12.1681
▁jayA	-12.1683
▁BujaMga	-12.1685
▁samASri	-12.1691
gava	-12.1692
kzayam	-12.1694
▁viBUzay	-12.1701
▁pRTvI	-12.1701
▁prANAyAma	-12.1701
▁Urmi	-12.1703
▁vakra	-12.1707
▁suKin	-12.1708
maNX	-12.1709
▁Syena	-12.171
pAW	-12.171
ruta	-12.1713
kuww	-12.1715
▁meDya	-12.1718
▁jQeyA	-12.1719
sRzwA	-12.1724
▁ikzvAku	-12.1727
▁jaFgama	-12.1727
sundara	-12.1732
AcAry	-12.1732
▁stanya	-12.1735
▁etena	-12.1738
prahRzw	-12.1738
varDan	-12.174
lajj	-12.1741
▁nivRtti	-12.1741
▁GRtA	-12.1743
▁majjan	-12.175
barh	-12.1751
samaye	-12.1754
▁piDA	-12.176
prasav	-12.176
▁avatAra	-12.1762
▁icCat	-12.1763
sTUl	-12.1769
mAnena	-12.1774
▁lAkzA	-12.178
▁sampuwa	-12.1781
FGri	-12.1786
neva	-12.1788
▁GAtay	-12.179
▁taTEvA	-12.1791
nArTa	-12.1794
vayaH	-12.18
Atmano	-12.1801
▁vidru	-12.1802
jval	-12.1804
▁gAFgeya	-12.1805
▁BaginI	-12.1805
▁nirdah	-12.1807
▁mUrCay	-12.181
▁udyAna	-12.181
locanA	-12.181
▁avaman	-12.1811
▁prAyaScitti	-12.1812
▁samman	-12.1814
▁samAvR	-12.1819
▁SuBe	-12.182
▁sumanas	-12.1824
▁sTitam	-12.1831
kArttik	-12.1832
sarzap	-12.1832
▁punarnavA	-12.1833
saMskAra	-12.184
▁manasvin	-12.184
AKye	-12.1842
▁kilbiza	-12.1843
Sabdo	-12.1846
ull	-12.1848
▁vyoma	-12.1852
▁pANXura	-12.1853
▁praNamya	-12.1856
ASritya	-12.1856
▁aMhas	-12.1857
▁vigam	-12.1861
▁SataSas	-12.1863
▁cOra	-12.1863
lap	-12.1863
▁hRzwa	-12.1867
▁kASyapa	-12.1868
▁matsyA	-12.1872
kIrti	-12.1878
▁vEXUrya	-12.1883
▁mAtula	-12.1883
▁durmati	-12.1884
▁dayita	-12.1884
▁pradiS	-12.1886
ADmAna	-12.1891
SmarI	-12.1891
▁bIBatsu	-12.1893
▁kurva	-12.1893
▁pRzwa	-12.1897
kzur	-12.1898
▁anATa	-12.1909
sAmarTy	-12.1911
▁palita	-12.1914
▁avaSyam	-12.1915
pArSva	-12.1916
kAdi	-12.1924
mez	-12.193
kaNA	-12.1932
▁vizNo	-12.1932
▁utsava	-12.1936
kuwumb	-12.1936
lOkik	-12.1936
▁sarvo	-12.1938
▁gamay	-12.1939
asaMSayam	-12.1939
cAtur	-12.1941
nyonya	-12.1942
▁mantri	-12.1951
▁BrAtara	-12.1953
tAl	-12.1955
vedana	-12.1955
▁SiS	-12.1957
vastra	-12.1961
▁kaWina	-12.1962
tezv	-12.1962
▁anyatama	-12.1968
▁jAto	-12.1976
▁tadyaTA	-12.1979
kaTA	-12.1982
▁mustA	-12.199
patan	-12.1994
▁gRhasTa	-12.1995
FgAra	-12.1998
sampanna	-12.2004
dravat	-12.2004
samo	-12.2005
▁bahv	-12.2006
▁iXA	-12.2006
pRcCat	-12.201
sundarI	-12.2015
KaNX	-12.2016
▁prasiD	-12.2016
▁mune	-12.2019
saMskRt	-12.2023
▁AsId	-12.2025
▁rucira	-12.2026
▁niyuj	-12.2027
▁vidyAt	-12.2027
ajAyata	-12.2028
▁Baven	-12.2029
▁praBU	-12.2029
▁nimajj	-12.2036
▁caturdaSa	-12.2037
puFK	-12.2039
▁mahIpAla	-12.2045
▁manohara	-12.2045
▁trayo	-12.2045
▁avara	-12.2047
▁yaTAsva	-12.2049
▁aBimanyu	-12.205
SOca	-12.2051
▁sumati	-12.2056
▁tav	-12.2056
▁prayojay	-12.2057
plAv	-12.2057
▁pralaya	-12.206
arzaNa	-12.2061
▁Dvaj	-12.2064
SabdA	-12.2067
▁pramuc	-12.2067
▁Gawotkaca	-12.2069
▁vrIhi	-12.207
▁karizyAm	-12.2075
▁pramaT	-12.2077
▁aDvaryu	-12.2078
▁mArg	-12.2079
jQapt	-12.208
▁tarpaNa	-12.2081
▁niboDa	-12.2081
nEvA	-12.2085
SItal	-12.2086
parAkrama	-12.2087
zwvA	-12.2088
matsar	-12.2089
▁divaM	-12.2095
▁padAti	-12.2103
▁pArTivA	-12.2116
DvaMsa	-12.2116
rOdr	-12.2119
▁hrasva	-12.2122
▁kapota	-12.2125
kajjal	-12.2126
cCinna	-12.2127
varDate	-12.2135
duhit	-12.2136
▁alaM	-12.2142
kilA	-12.2142
▁pratizWita	-12.2148
▁sarvaloka	-12.2149
▁gAyatra	-12.2151
▁Kaga	-12.2154
kAreNa	-12.2156
tavyo	-12.2156
kRzw	-12.2161
zwaka	-12.217
saMSraya	-12.2171
▁BraMS	-12.2176
dviguN	-12.2176
▁pratIkz	-12.2176
▁nRSaMsa	-12.2176
▁Alokay	-12.2177
▁AkRz	-12.2179
▁dAXima	-12.2182
▁bRMhaNa	-12.2184
uBay	-12.2187
mAdAya	-12.2189
opamA	-12.2193
▁aSvA	-12.2197
pOz	-12.2198
raSmi	-12.2202
padyata	-12.2203
▁prApnot	-12.2211
▁vAlin	-12.2212
▁SarIre	-12.2213
▁asama	-12.2213
▁Savas	-12.2215
mastak	-12.2229
basti	-12.2229
▁saMtyaj	-12.2231
▁ABA	-12.2232
▁prakalpay	-12.2235
▁ukz	-12.2241
▁yajQo	-12.2246
▁vicintay	-12.2248
▁ekaviMSati	-12.2248
saptati	-12.2251
▁cul	-12.2256
jigIz	-12.2259
kezu	-12.2261
▁yugapad	-12.2265
▁balya	-12.2266
pRzWa	-12.2272
samutT	-12.2274
yogAt	-12.2278
jvarA	-12.2279
▁tvarita	-12.2281
kaPa	-12.2283
vAsanA	-12.2288
▁yAjQavalkya	-12.229
hotra	-12.229
mBo	-12.229
▁strINA	-12.2294
varma	-12.2298
vEzNav	-12.2299
▁bila	-12.2305
GRta	-12.2306
▁ajara	-12.2308
praBRti	-12.2311
▁krAmaNa	-12.2314
▁jAyante	-12.2317
rADi	-12.2318
vipr	-12.2319
▁ADAra	-12.2319
▁Cinna	-12.2327
nanta	-12.2328
vijQAna	-12.2333
mAnasa	-12.2337
▁DanuH	-12.234
▁BrAtA	-12.2341
▁gOtam	-12.2355
pRzWe	-12.2359
lipta	-12.2362
▁dizwi	-12.2368
saMDAna	-12.2368
pravar	-12.2372
▁maDU	-12.2372
▁sattra	-12.2379
▁upavas	-12.2383
Baj	-12.239
▁SarEr	-12.2393
▁kumBakarNa	-12.2396
▁avagAh	-12.2397
▁vRdDA	-12.2398
vIryA	-12.2402
▁lAGava	-12.2403
▁suDI	-12.2407
▁AgA	-12.2409
▁revA	-12.2413
didRkz	-12.2423
sadRSa	-12.2432
Kalve	-12.2433
vaw	-12.2434
▁prasAday	-12.2437
▁gAnDarv	-12.2451
▁sArTavAha	-12.2451
▁karpUra	-12.2452
jagmu	-12.2454
▁arcana	-12.2457
▁prAkRta	-12.246
▁mahya	-12.2462
taraNa	-12.2464
▁vistAra	-12.2469
▁kalaSa	-12.247
vatIr	-12.247
yantr	-12.2477
sUdana	-12.2479
▁vyAkartu	-12.2479
▁vinDya	-12.2479
▁pitLn	-12.2479
▁BavitA	-12.2479
▁nRpA	-12.2481
▁niHSvas	-12.2481
SUdr	-12.2482
▁yogI	-12.2483
srota	-12.2484
▁svayamBu	-12.2489
neha	-12.2491
yanto	-12.2491
mAyayA	-12.2495
ruja	-12.2501
poz	-12.2504
▁vaktum	-12.2507
▁avayava	-12.251
▁pItA	-12.2512
▁barhis	-12.2515
▁krudD	-12.2516
SokA	-12.2518
▁BrAtRvya	-12.2519
▁Darmya	-12.2524
▁jAtI	-12.2532
ned	-12.2532
mAhAtmyavarNana	-12.2535
▁sAtvata	-12.2535
▁atandr	-12.2537
▁sRQjaya	-12.2538
plut	-12.2541
▁syuH	-12.2543
kleS	-12.2547
miva	-12.2556
veSma	-12.2556
mahiz	-12.2557
pRzw	-12.2564
vaDa	-12.2565
otpala	-12.2566
▁Sarman	-12.2567
praNAS	-12.257
▁moda	-12.2573
▁acintya	-12.2575
▁Izat	-12.2575
purIz	-12.2578
▁kAk	-12.2579
▁cakzuzya	-12.2583
suBag	-12.2587
plIh	-12.259
vAruNI	-12.2591
▁kRzNe	-12.2592
mahI	-12.2593
cApa	-12.2596
▁grAhi	-12.2597
vRk	-12.26
vicAr	-12.2601
tikta	-12.2604
doha	-12.2605
▁GaNwA	-12.2607
matir	-12.2611
▁tozay	-12.2611
vAkya	-12.2612
rabD	-12.2619
▁aBizeka	-12.2619
▁tAvaka	-12.262
▁pRTivIpati	-12.2625
▁pravAla	-12.2629
vacaH	-12.263
BAvana	-12.2636
▁hiF	-12.2637
AdiBir	-12.264
▁ciCed	-12.2648
▁ayoDyA	-12.2648
▁pItvA	-12.2648
▁mETuna	-12.2652
▁sahasrAkza	-12.2653
▁sAmya	-12.2653
kzatra	-12.2657
▁pariGa	-12.2659
▁taras	-12.266
▁somo	-12.2667
▁puruzavyAGr	-12.2676
▁jAgR	-12.2678
guNEr	-12.268
▁Endr	-12.2684
▁yaTAnyAyam	-12.2686
▁ezi	-12.2689
▁Ayat	-12.2689
FguzW	-12.269
nivRtt	-12.269
▁sTANu	-12.2691
tmajA	-12.2694
otTA	-12.2697
▁prapaS	-12.27
kirIw	-12.2701
▁Sulva	-12.2704
▁nareSvara	-12.2705
▁unnam	-12.2708
FganA	-12.2716
vArzik	-12.2717
▁bRhant	-12.2717
sRjat	-12.2723
mUrt	-12.2726
caraNa	-12.2727
▁uccEs	-12.2733
▁mAsi	-12.2737
▁dIpta	-12.2737
▁saMspRS	-12.2738
lAl	-12.274
ApnuyAt	-12.2749
pakze	-12.2752
▁purastAd	-12.2762
▁kapilA	-12.2763
▁nihata	-12.2768
FkuS	-12.277
rbud	-12.2775
mArge	-12.2776
▁kutra	-12.2778
kop	-12.278
▁SAMtanava	-12.2781
rTAn	-12.2787
▁sarzapa	-12.2789
▁kiMnara	-12.2792
rAjye	-12.2792
tuNX	-12.2795
▁apaSyat	-12.28
▁vAruNa	-12.2801
▁paramAtman	-12.2813
vahni	-12.2814
▁elA	-12.2816
▁jaXa	-12.2819
▁bravIm	-12.282
jambU	-12.282
yAtuDAn	-12.2822
▁janADipa	-12.2822
▁putrAn	-12.2828
rohiN	-12.2832
▁SudDA	-12.2837
musal	-12.2844
cAp	-12.2853
catur	-12.2856
▁vidur	-12.2857
pannag	-12.2859
manvantar	-12.2861
uttara	-12.2861
▁sarpA	-12.2864
▁poza	-12.2865
▁daSama	-12.2866
▁vav	-12.2867
▁Atreya	-12.2877
▁aprameya	-12.2877
▁aBiman	-12.2878
naKa	-12.2879
▁praveSay	-12.2886
▁udIray	-12.2889
caturdaSan	-12.2891
opet	-12.2892
nirGoza	-12.2901
neya	-12.2902
▁baka	-12.2902
▁ramaNI	-12.2907
▁Amalaka	-12.291
parIt	-12.2911
Ball	-12.2911
parimANa	-12.2911
▁nAhaM	-12.2914
mADav	-12.2917
▁kzut	-12.2922
kowI	-12.2928
▁anviz	-12.2928
toz	-12.2939
▁samAyuj	-12.294
hUt	-12.294
▁saMtati	-12.294
▁samAcaret	-12.2942
▁upacAra	-12.2946
OGa	-12.2948
▁baBUvu	-12.2953
SarIrA	-12.2958
▁garta	-12.2961
▁tasyE	-12.2961
cIna	-12.2963
▁sarvaBUta	-12.2964
▁kravyAd	-12.2964
▁anumAna	-12.2968
▁sapatna	-12.297
▁tripura	-12.2971
▁dAnavA	-12.2973
▁senApati	-12.2993
sADyA	-12.2993
▁snuhI	-12.2994
▁sIsa	-12.2995
▁tejasvin	-12.2999
▁prajval	-12.3001
▁labDvA	-12.3002
ciQc	-12.3002
▁svalpa	-12.3002
▁mahAbAhu	-12.3004
kOtuk	-12.301
▁jaWara	-12.3011
▁yenA	-12.3012
magn	-12.3015
▁pipAsA	-12.3016
▁dizwyA	-12.3023
▁dolA	-12.3023
▁makara	-12.3029
zazwi	-12.3032
▁sADAraNa	-12.3035
▁praNaya	-12.3048
▁balavAn	-12.3052
awwa	-12.3056
▁kAraNA	-12.3059
dIpt	-12.3061
SrezWo	-12.3066
sUtr	-12.3066
pOruz	-12.3071
lakzaNA	-12.3075
▁vEvasvata	-12.3082
▁uttAna	-12.3082
▁dunduBi	-12.3087
otsAh	-12.3088
▁Rju	-12.3089
▁granTa	-12.3092
Bakti	-12.3094
trEva	-12.3095
▁pAvak	-12.3096
tIva	-12.3101
▁paryAp	-12.3104
nujQA	-12.3105
▁kAzWA	-12.3106
pratyaya	-12.3107
▁devEr	-12.3109
▁hRzIkeSa	-12.3112
opeta	-12.3114
Badr	-12.3114
Amyaham	-12.312
vayav	-12.3122
▁stotra	-12.3122
▁viSvAsa	-12.3123
▁SakRt	-12.3124
▁pUjana	-12.3131
▁praBUta	-12.3132
▁prahara	-12.3136
▁sAkzAd	-12.3143
▁muhuH	-12.3143
▁SoBay	-12.3146
rmANi	-12.3146
▁gokarNa	-12.3147
▁aruci	-12.3149
▁pUrvokta	-12.3149
▁aBijQA	-12.315
prasAda	-12.3153
yeza	-12.3154
karmasu	-12.3158
▁prajApatir	-12.3167
mukto	-12.3169
▁papracCa	-12.3172
yizyat	-12.3174
tyupa	-12.3181
▁mahAbalA	-12.3181
▁yoDay	-12.3182
▁Bagava	-12.3184
saMga	-12.3196
▁mahAvIry	-12.32
▁kOsalyA	-12.3202
▁nahuza	-12.3202
▁ASvAsay	-12.3203
▁pAWA	-12.3203
viSrAnt	-12.3206
▁dadRSu	-12.3207
▁ahita	-12.3208
laF	-12.3213
▁AkR	-12.3218
Bizek	-12.3223
vivarDana	-12.3225
▁Cando	-12.3232
iNe	-12.3232
▁maDumat	-12.3233
▁ASin	-12.3233
▁kzetrajQa	-12.3233
▁brAhmaNI	-12.3236
▁saMSri	-12.3238
▁kaMsa	-12.3245
tulyA	-12.3247
BayAt	-12.325
lakzmI	-12.3254
rikt	-12.3255
▁carAcara	-12.3262
kurvAN	-12.3262
▁parivarjay	-12.3262
▁etAni	-12.3264
▁vilokay	-12.3266
sTApana	-12.3266
▁vyatI	-12.3268
▁BImo	-12.327
vizW	-12.3276
dRk	-12.3276
▁arhant	-12.3278
SrayA	-12.328
▁dvIp	-12.3283
vatsA	-12.3285
kalmaza	-12.3292
▁snuzA	-12.3292
▁kuto	-12.33
kIrtan	-12.3302
vaman	-12.3318
▁aDyayana	-12.3322
▁tRtIyA	-12.3322
vihvala	-12.3322
kardama	-12.3323
▁rasarAja	-12.3324
yatana	-12.3324
stasyA	-12.3332
SvameD	-12.3336
kuca	-12.3336
zNo	-12.3339
▁Alamb	-12.3341
rTI	-12.3343
▁vedAn	-12.3344
▁aDy	-12.3345
▁upahan	-12.3346
oday	-12.3349
▁yaTezwa	-12.3353
▁pAvana	-12.3353
pAlana	-12.3355
▁praNava	-12.3359
BAvAt	-12.3365
Aruhya	-12.3367
vRnd	-12.337
▁Urja	-12.3372
kuQjar	-12.3373
▁niScitam	-12.3379
▁saMhitAyA	-12.338
▁yAdRSa	-12.3386
▁cApy	-12.3387
▁prasaFga	-12.3388
▁karizyat	-12.3392
▁Ayuz	-12.3396
▁pRTA	-12.3397
prANa	-12.34
dvaMdv	-12.3402
▁BEkza	-12.3414
▁parokza	-12.3414
▁cumb	-12.3419
yeha	-12.3421
yuDizWir	-12.3423
pure	-12.3427
▁rAjAnam	-12.3427
▁hantu	-12.3429
Etat	-12.3429
▁SarIri	-12.3429
maDura	-12.3435
▁trizwuB	-12.3445
▁paNya	-12.3445
▁AdityA	-12.3445
prAsAd	-12.3445
▁vapuz	-12.3446
▁sUryo	-12.3447
▁karNo	-12.3449
gOrav	-12.3453
▁hiFgula	-12.3454
vetasa	-12.3455
juz	-12.3458
ropay	-12.346
▁vicAray	-12.3463
grIva	-12.3464
▁druh	-12.3471
heti	-12.3474
▁vArzNeya	-12.3475
SmaSru	-12.3475
bahiH	-12.3475
▁siMhanAda	-12.3476
▁vyAyAma	-12.3479
▁ekadA	-12.348
syAnu	-12.3481
▁krOQca	-12.3481
▁anugrah	-12.3484
▁kaliFga	-12.3487
tAmrA	-12.3488
▁hRdaye	-12.3493
▁vaSI	-12.3497
▁parAji	-12.3499
naK	-12.35
parpaw	-12.3501
vivikt	-12.3502
▁varzAN	-12.3503
▁viDU	-12.3505
▁anAgata	-12.3506
saMrabD	-12.3508
kubj	-12.351
▁aBiBAz	-12.3511
BraMSa	-12.3512
prasaFg	-12.3523
Ajy	-12.3524
gnihotr	-12.3527
▁saMhan	-12.3527
▁ajIrNa	-12.3527
mAgaD	-12.3528
yogi	-12.3529
▁samAviS	-12.3532
smRti	-12.3534
rUpAN	-12.3535
▁aBipre	-12.3538
pipAs	-12.3539
▁durjaya	-12.3539
▁kuFkuma	-12.354
▁brahmANa	-12.3541
▁manoraTa	-12.3548
yujyate	-12.3554
Bizag	-12.3555
hatyA	-12.3558
Bezaj	-12.356
DizWit	-12.3567
▁SatAvarI	-12.3568
▁mahAyaSA	-12.3568
patat	-12.3568
▁anyatara	-12.357
virudDa	-12.3571
Sceti	-12.3572
▁kapard	-12.3573
pRzat	-12.3575
▁payaH	-12.3577
▁tridaS	-12.3578
▁Apta	-12.3583
Arza	-12.3588
wwa	-12.359
vign	-12.3591
▁anuBAva	-12.3594
praSamana	-12.3599
▁provAca	-12.36
▁BakzaNa	-12.3601
▁mAraNa	-12.3614
▁kulatTa	-12.3617
mUzik	-12.3621
▁yoDA	-12.3622
rANAm	-12.3627
▁yaTAsuKam	-12.3628
▁mriyate	-12.363
varUT	-12.3633
▁ambA	-12.3633
▁Sala	-12.3638
▁sampR	-12.3645
palAS	-12.3648
ottarA	-12.3649
noda	-12.3661
mAsA	-12.3661
▁bahavo	-12.3662
▁devayAnI	-12.3662
saMyukt	-12.3663
▁svarasa	-12.3669
SoBA	-12.367
pRzW	-12.367
▁ratnAn	-12.3686
▁pracakz	-12.369
▁SvayaTu	-12.3693
▁eraNXa	-12.3694
▁durgA	-12.3703
▁yaTASakti	-12.3704
▁etam	-12.3707
Kecar	-12.3712
▁kaTyate	-12.3725
kadalI	-12.3725
▁daSagrIva	-12.3725
▁sOvarNa	-12.3725
kAkol	-12.373
DAvan	-12.3732
▁vErAgya	-12.3732
DRk	-12.3741
▁Akzip	-12.3748
yizyAm	-12.3751
▁itTaM	-12.3756
▁RBu	-12.3758
gRhNA	-12.376
▁musala	-12.3764
▁SAla	-12.3765
▁cu	-12.3766
▁ucCri	-12.3766
mohit	-12.3768
viBrama	-12.3775
sikt	-12.3775
▁maharzi	-12.3776
Sani	-12.3778
niScay	-12.378
gAl	-12.3785
▁AliFg	-12.3787
▁Canda	-12.3788
▁SuNWI	-12.3788
▁caturviMSati	-12.379
▁utsAha	-12.3791
vivarjita	-12.3791
▁lag	-12.3802
sparD	-12.3804
virah	-12.381
sampannA	-12.3822
SAnti	-12.3823
kuNW	-12.3824
neka	-12.3825
▁pravR	-12.3825
ropaNa	-12.383
DikAr	-12.3836
▁abravId	-12.3837
▁saMkzepa	-12.3838
sarj	-12.3839
▁yajQiya	-12.3842
▁cEka	-12.3843
▁SyAva	-12.385
gardaB	-12.3852
▁nArAca	-12.3852
▁arcis	-12.3853
kASe	-12.3854
▁syand	-12.3858
dRg	-12.3861
DArmik	-12.3862
▁Bartu	-12.3863
▁nAsikA	-12.3864
▁vinad	-12.3867
sAraNA	-12.3868
▁DImAn	-12.3868
▁viditvA	-12.3869
tuly	-12.3871
▁mAgaDa	-12.3872
kesar	-12.3873
kRzNa	-12.3884
▁jImUta	-12.3884
▁BartA	-12.3884
▁SrAvaka	-12.3886
▁imAm	-12.3886
▁Badre	-12.3893
▁anDaka	-12.3895
pluta	-12.3898
▁icCan	-12.3905
odaya	-12.3907
taTeti	-12.3912
▁SilAjatu	-12.3916
▁aBiprAya	-12.3916
▁yudDA	-12.3916
sroto	-12.3918
▁nAnAviDa	-12.3922
niSam	-12.3936
mAhAtmy	-12.3936
▁praNiDA	-12.395
dakz	-12.395
▁maNXUka	-12.3952
▁BuktvA	-12.3953
viparyay	-12.3953
nErRt	-12.3956
▁pAyasa	-12.3958
▁prajAnA	-12.3971
▁samBR	-12.3972
sAhas	-12.3979
▁prakup	-12.3981
▁yAjay	-12.3983
▁upo	-12.3987
▁timira	-12.3988
▁kalyAN	-12.3989
▁kroD	-12.3989
▁vizAN	-12.3989
▁jizNu	-12.399
saMhat	-12.3994
BrAnta	-12.3994
cezwita	-12.3997
praveS	-12.4001
▁jIrNe	-12.4004
▁vipro	-12.4006
▁valla	-12.4008
▁taNXula	-12.4009
gurU	-12.4012
▁kliS	-12.4013
▁yUpa	-12.4015
gUXa	-12.4016
▁vIro	-12.402
narta	-12.4021
piSAc	-12.4025
▁vikrI	-12.4033
Ayuza	-12.4037
▁pul	-12.4039
pratipatti	-12.4042
▁BAminI	-12.4046
▁saptadaSa	-12.4047
▁aByaFga	-12.4051
▁paScA	-12.4058
sRk	-12.4058
▁nirguNa	-12.406
▁kRzNo	-12.4061
▁SOnaka	-12.4078
▁paryupAs	-12.4078
▁unmAda	-12.4078
▁sTavira	-12.4078
pariNAm	-12.4087
▁mandira	-12.4087
▁kEkeyI	-12.4087
arat	-12.4094
▁prameha	-12.4096
patr	-12.41
▁laBet	-12.4101
▁vajrA	-12.4103
▁DRtarAzwr	-12.4109
▁aBiDAv	-12.4109
▁sUte	-12.411
▁saMtAna	-12.4113
PalAni	-12.4114
kanak	-12.4121
▁BAzita	-12.4121
DAriN	-12.4128
▁paFka	-12.4128
vyavahAr	-12.4132
▁yUTapa	-12.4144
▁stoka	-12.4144
▁nagarI	-12.4146
▁dadyA	-12.415
mahant	-12.4151
▁aTarva	-12.4155
▁dIrGA	-12.4155
▁maharzaya	-12.4164
▁cikitsA	-12.4165
dvitIy	-12.417
uzo	-12.4173
▁tArkzya	-12.4177
▁samarpay	-12.4177
▁sOvIra	-12.4177
▁Karpara	-12.4177
samavAy	-12.4179
▁kaTaMcid	-12.4179
▁syandana	-12.4185
▁reNu	-12.4187
SrAdD	-12.419
▁lokapAla	-12.4192
prayatn	-12.4194
▁mandara	-12.42
▁vivakz	-12.4203
▁mahAbAhur	-12.4206
pArTiv	-12.4207
puNXr	-12.4211
samucC	-12.4211
▁dEtyA	-12.4213
▁BerI	-12.4213
▁SuSrUzA	-12.4215
kuNX	-12.4221
▁gurv	-12.4223
▁dehe	-12.4225
jayat	-12.4232
▁Kecara	-12.4234
viBakt	-12.4236
parAyaNa	-12.4237
▁cot	-12.424
▁mlecCa	-12.4243
▁Aplu	-12.4245
avApnuyAt	-12.4249
▁devarzi	-12.4252
▁sAtmya	-12.4263
▁SriyA	-12.4273
▁rAhu	-12.4279
▁brahmarzi	-12.4279
▁pativratA	-12.4279
▁Balla	-12.4281
▁asakRt	-12.4287
▁tatrApi	-12.4288
vatAr	-12.4295
▁kubera	-12.4296
bRMh	-12.4301
▁mRzA	-12.4303
▁kAmAn	-12.4309
▁rocana	-12.4311
▁sudarSana	-12.4321
▁tasyEva	-12.4323
▁alp	-12.4325
▁Saravarz	-12.4331
▁tAmasa	-12.4331
odBavA	-12.4331
soma	-12.4334
bRhaspat	-12.4334
▁nIca	-12.4336
▁praSama	-12.4336
▁Bojya	-12.4336
▁Badanta	-12.4344
▁suBadrA	-12.4344
▁pratyuvAc	-12.4345
vyavasTit	-12.4345
samast	-12.4346
▁tAByA	-12.4349
vell	-12.435
▁Agamana	-12.4354
caturdaS	-12.4357
▁kriyatA	-12.4359
▁dvAtriMSat	-12.4361
Garm	-12.4365
▁uzwra	-12.4377
▁DAnyABra	-12.4377
▁pitrA	-12.438
utpanna	-12.4381
▁prahlAda	-12.4382
▁punaS	-12.4382
▁karuNa	-12.4384
▁klIba	-12.4385
vaktrA	-12.4389
▁udIr	-12.4391
▁jaGana	-12.4394
ASis	-12.4394
▁pUrvAhN	-12.4411
▁ASIviza	-12.4411
▁mUrDni	-12.4412
kOSik	-12.4412
▁aparADa	-12.4418
▁kiwwa	-12.4419
▁tanmAtra	-12.4427
▁Ahave	-12.4428
horAtr	-12.4436
praSAnt	-12.4436
▁anaBi	-12.4443
mahAraT	-12.4444
▁aByanujQA	-12.4447
▁saMsTApay	-12.4448
▁sArva	-12.4449
▁jahi	-12.4451
▁samAsTA	-12.4456
▁SUl	-12.4459
jAnAmi	-12.4462
▁cora	-12.4466
cCasi	-12.4477
valkal	-12.4481
▁upadrava	-12.4488
▁sUri	-12.4494
Fgiras	-12.4508
▁tAlu	-12.4513
pAtak	-12.4513
▁prakzAlay	-12.4513
▁marma	-12.4514
▁anDamUzA	-12.4514
▁niHsR	-12.4515
▁pAMsu	-12.4518
▁vAhay	-12.452
Saktir	-12.4522
▁grAmya	-12.4522
Byud	-12.4523
sADv	-12.4528
vidyu	-12.453
▁viSudDi	-12.4531
SAyin	-12.4533
kaTana	-12.4539
ANo	-12.4543
▁Sulka	-12.4548
▁upADyAya	-12.4548
sAyujya	-12.4549
priyo	-12.4549
DarmeN	-12.455
▁avaruD	-12.4551
▁Kadira	-12.4554
daDa	-12.4555
▁karuNA	-12.4555
▁leKana	-12.4555
▁saMkzaya	-12.4555
nyasta	-12.4558
▁udvij	-12.4561
yASu	-12.4561
▁tiro	-12.4563
▁dadRS	-12.4572
meya	-12.4575
▁kawi	-12.4581
▁valmIka	-12.4582
▁saMlakzay	-12.4582
▁kurukzetra	-12.4582
gamBIr	-12.4582
▁brahmaNo	-12.4583
▁citrasena	-12.4584
▁puruzarzaBa	-12.4584
▁tatsarva	-12.4587
SASvat	-12.459
sakAS	-12.4594
pota	-12.4605
viDo	-12.4613
AyuzmAn	-12.4613
▁jAmadagny	-12.4616
▁naravyAGr	-12.4616
▁ujjvala	-12.4616
▁vArttA	-12.4616
▁vAsuki	-12.4617
dravyAN	-12.4617
▁pitrya	-12.4618
▁pavamAna	-12.4619
▁nRNAm	-12.4619
▁rAmeN	-12.4624
▁satyavatI	-12.4625
jahAra	-12.4637
▁Uzma	-12.4642
▁grAhay	-12.4649
▁sAntva	-12.465
▁sAMpratam	-12.4651
BRFg	-12.4656
▁saktu	-12.4657
▁matimat	-12.4661
DUp	-12.4664
▁kiMcana	-12.4664
▁aDikAra	-12.4665
carit	-12.467
▁bANEr	-12.4675
prArT	-12.4679
kRnta	-12.468
vedo	-12.4682
▁kIdRSa	-12.4686
mukuw	-12.4692
▁nyagroDa	-12.4695
tviti	-12.4695
sapatn	-12.4704
▁dvAv	-12.4715
▁niyojay	-12.4715
▁vijQApay	-12.4719
▁mAtuluFga	-12.4721
▁dvApara	-12.4721
▁mahAtapA	-12.4722
▁saMSita	-12.4723
▁kiyat	-12.4733
vikray	-12.4737
sAtmy	-12.4739
▁maharz	-12.4746
mArkaNXeya	-12.4748
samAhit	-12.4748
pramANA	-12.4755
jAraNA	-12.4755
▁vESvadeva	-12.4756
▁BartAra	-12.4757
veDin	-12.476
Sabdena	-12.4761
▁SatruGna	-12.4764
rizwa	-12.4769
tasTu	-12.477
▁saMcintay	-12.4774
sahita	-12.4779
ArtA	-12.4782
▁stom	-12.4782
▁varuNo	-12.4783
Bedin	-12.4783
SravA	-12.4783
▁skAnda	-12.4791
gotr	-12.48
▁kzan	-12.4809
▁svAhet	-12.4814
nUpur	-12.4823
▁purogama	-12.4826
▁guggulu	-12.4828
raNye	-12.4828
▁vyavasTita	-12.483
▁paQcaDA	-12.4832
darSane	-12.4837
▁pavan	-12.4858
▁sindUra	-12.4861
▁prasanna	-12.4868
▁niSamya	-12.4869
▁vizNor	-12.4875
catuzway	-12.4883
medo	-12.4885
▁etac	-12.4886
ekEk	-12.489
▁hAhA	-12.4892
▁cAtma	-12.4894
▁mArjAra	-12.4897
▁agnizwoma	-12.4897
▁durAsada	-12.4897
▁aparAjita	-12.4897
yoDin	-12.49
▁SAlva	-12.4903
pravaN	-12.4905
▁praSast	-12.4913
▁vegavat	-12.492
ntaHpur	-12.4922
paNXit	-12.4925
▁SEneya	-12.4932
▁cyavana	-12.4932
▁varizWa	-12.4933
▁kaNva	-12.4934
▁ozWa	-12.4936
▁pRSni	-12.4937
maGa	-12.4939
▁mahiman	-12.494
eNEva	-12.494
▁pratyAKyA	-12.4942
▁plIhan	-12.4948
▁SiKin	-12.4951
pUraNa	-12.4957
gol	-12.4961
▁arbuda	-12.4968
▁trayastriMSa	-12.497
▁alaMkAra	-12.4973
▁tridiva	-12.4974
tmAna	-12.4975
tuFga	-12.4976
rpita	-12.4976
praNay	-12.4979
▁sUra	-12.4985
▁rohita	-12.5002
▁SAlmal	-12.5002
▁amoGa	-12.5004
▁mOktika	-12.5004
▁Ipsay	-12.5004
▁haritAla	-12.5005
vizwo	-12.5007
pucC	-12.5007
Sleza	-12.5007
▁Kalv	-12.5011
▁nityaSa	-12.5012
▁SlezmA	-12.5018
▁pANXavE	-12.5021
mRNAl	-12.5032
▁harItakI	-12.504
▁mahAmuni	-12.504
▁bahava	-12.5044
▁baBru	-12.5054
krAm	-12.5061
▁pawwa	-12.5062
▁Ke	-12.5062
Ayuzman	-12.5069
surAn	-12.5074
▁rADas	-12.5074
▁vArANasI	-12.5076
▁kurUNA	-12.5076
▁ulkA	-12.5078
saMsTita	-12.5079
▁kasmAd	-12.5083
prayukt	-12.5085
datto	-12.5096
▁pramAda	-12.5097
patAk	-12.5101
kAQjik	-12.5107
▁striyA	-12.5107
▁kalaha	-12.5107
mardita	-12.5109
▁kOtUhala	-12.5112
▁uparizwAt	-12.5112
▁vivyAD	-12.5112
▁kRtavarman	-12.5113
▁ukto	-12.5113
▁luB	-12.5114
▁sampUjya	-12.5115
▁grIzma	-12.5122
▁paSava	-12.5125
parIkz	-12.5128
majja	-12.5136
kAriNa	-12.5137
vaDe	-12.5147
▁jAmbUnada	-12.5148
▁saminD	-12.515
▁aSvatTa	-12.515
▁vAtapitta	-12.5151
▁AvaraNa	-12.5153
▁vaDyamAn	-12.5157
Satru	-12.5158
prasT	-12.5162
▁snApay	-12.5163
vanaspat	-12.5164
▁unmad	-12.5175
▁SRNv	-12.5179
karhicit	-12.5185
▁vanDyA	-12.5187
▁roh	-12.5188
vivAh	-12.519
mOli	-12.5192
▁yuge	-12.5193
▁pretya	-12.5194
darSanAt	-12.5197
spazwa	-12.52
▁klama	-12.5202
▁bANA	-12.5208
▁DarmarAj	-12.5213
laFGay	-12.5222
▁udaDi	-12.5222
▁vijQeya	-12.5222
pataye	-12.5227
▁Bujaga	-12.5227
▁saciva	-12.5228
▁vajramUzA	-12.5228
tiryag	-12.5229
▁gArhapatya	-12.5229
▁saMniDA	-12.5233
pIXya	-12.5236
▁miTas	-12.5239
▁sAntvay	-12.524
vizaye	-12.524
saMGa	-12.5246
pramatt	-12.5247
▁avaDya	-12.5248
▁indriyAN	-12.5256
▁vimRS	-12.5258
▁dUzaNa	-12.5258
▁varAnan	-12.526
sRg	-12.5263
harat	-12.5269
Anand	-12.5274
sADan	-12.5279
▁svasR	-12.5294
skAnde	-12.5295
▁lomaSa	-12.5296
niGna	-12.5296
▁meKalA	-12.5302
▁sPawika	-12.5302
rocanA	-12.5305
▁kzapay	-12.5306
▁takz	-12.5324
paSye	-12.5326
ottare	-12.5329
BagavAn	-12.5332
▁SvaSura	-12.5332
vilAsa	-12.5335
▁viSada	-12.5335
Byetya	-12.5338
▁praSAs	-12.5339
▁Srotriya	-12.5343
caranti	-12.5345
viGn	-12.5353
sevita	-12.5369
▁tvazwR	-12.5369
KarjU	-12.537
▁DUrta	-12.537
vRScik	-12.5372
mahorag	-12.5373
▁Palgu	-12.5374
kumud	-12.5375
▁anAmaya	-12.538
vaBAs	-12.5393
▁snAyu	-12.5404
▁paripR	-12.5406
▁Bavizyas	-12.5408
▁pawola	-12.5412
laMkRt	-12.5414
▁karNe	-12.5417
▁AkAFkz	-12.5419
izikt	-12.5427
▁samutpad	-12.543
▁dvitIyA	-12.5432
praNat	-12.5436
▁aByaQj	-12.5442
cAndrAyaNa	-12.5444
▁aSuci	-12.5444
▁droNaputra	-12.5448
vijQAn	-12.545
▁svatantra	-12.5454
nne	-12.546
sugrIv	-12.547
▁kRzNadvEpAyan	-12.5482
▁duHsaha	-12.5482
▁viBAzA	-12.5483
▁tandrA	-12.5484
nASinI	-12.5488
gantav	-12.5488
BAzitam	-12.5496
▁ekASIti	-12.5519
▁SArIra	-12.552
▁mAtaMga	-12.552
▁caNXAla	-12.552
▁plavaMga	-12.5524
▁avaSeza	-12.5525
▁trapu	-12.5526
▁karom	-12.5528
▁Apann	-12.5529
▁vibuDa	-12.5536
vivRD	-12.5537
rakzitA	-12.5546
juzwa	-12.5547
▁vajrin	-12.5547
koSa	-12.5548
▁vindat	-12.5549
nirUh	-12.5551
▁aDastAt	-12.5558
vistAr	-12.5559
▁pArTo	-12.5561
▁munaya	-12.5572
▁SataDA	-12.5578
kalpita	-12.5595
zWIv	-12.5597
▁sidDArTa	-12.5598
▁muQcat	-12.5602
zazwy	-12.5602
▁prasIda	-12.5607
▁nisvana	-12.5608
Fkur	-12.5612
pUjan	-12.5616
▁keval	-12.5625
napuMsak	-12.5634
vyApaka	-12.5634
▁atula	-12.5635
paQcadaS	-12.5636
▁prAvRz	-12.5636
▁rAjaMs	-12.5644
▁pittA	-12.5665
▁viSezAt	-12.5666
brahm	-12.5669
▁avaSiz	-12.567
▁sruc	-12.567
svADyA	-12.5671
▁kAkamAcI	-12.5672
▁yuyuDAna	-12.5672
▁anindita	-12.5672
▁vESravaNa	-12.5672
▁BittvA	-12.5672
▁puzpita	-12.5674
▁pANXuputr	-12.5676
stotr	-12.5681
▁trayI	-12.5711
▁caturDA	-12.5712
▁cirAt	-12.5712
▁zaXguNa	-12.5713
▁nirRti	-12.5714
viparIt	-12.5716
▁cEtra	-12.5717
pratyakz	-12.5721
kuSala	-12.5721
tIty	-12.5724
▁rocat	-12.5737
waFkaN	-12.5741
rciz	-12.5745
buBukz	-12.5749
▁SaMtanu	-12.5749
▁ucCizwa	-12.575
lalAw	-12.5753
▁jaFGA	-12.5756
▁dId	-12.5756
BUzaNA	-12.5758
▁vESyA	-12.576
▁kumuda	-12.5761
▁parAFmuKa	-12.5761
▁aDvar	-12.5774
otTit	-12.5778
▁kRtArTa	-12.5784
▁ganDamAdana	-12.5788
▁vidraDi	-12.5788
▁gajapuwa	-12.5789
▁yakzma	-12.5789
▁vIruD	-12.5789
▁puNXarIka	-12.5794
jAnapad	-12.5797
▁puruze	-12.5802
Keda	-12.5806
sanDi	-12.5809
guQj	-12.5809
Bilaz	-12.5817
▁pizwI	-12.5821
snAna	-12.5823
sAraTi	-12.5825
▁Arjava	-12.5827
▁dvAByA	-12.5828
▁raTaMtara	-12.5828
hiraNy	-12.5834
asaMKyey	-12.584
veSya	-12.5848
▁vartamAna	-12.5851
▁vinatA	-12.5856
dunduB	-12.586
▁padminI	-12.5866
▁aByaDika	-12.5867
▁urvI	-12.5867
jagAma	-12.587
mUrDani	-12.5873
BAskar	-12.5876
▁dyOr	-12.5877
▁DarmArTa	-12.5896
pOrNamAs	-12.59
▁brahmacArI	-12.5905
▁kRtrima	-12.5905
▁SanEr	-12.5905
▁hikkA	-12.5905
▁loDra	-12.5905
▁apramatta	-12.5905
▁icCas	-12.5908
▁boDay	-12.591
▁saptAha	-12.5914
Palo	-12.5917
▁trayodaS	-12.5922
saMniD	-12.5927
gAyat	-12.5935
▁varAroh	-12.594
▁malina	-12.5944
▁kaTitA	-12.5948
kIrNA	-12.595
yazwI	-12.5956
▁sUrye	-12.596
kroDA	-12.5979
nibarhaNa	-12.5984
▁garIyas	-12.5984
▁tRtIye	-12.5984
▁turaga	-12.5985
▁paSavo	-12.5986
▁nagna	-12.5988
cEtany	-12.5996
vismay	-12.5997
▁kadamba	-12.6
kratu	-12.6012
▁manorama	-12.6024
▁prakIrtita	-12.6024
ketana	-12.6025
▁caturdaSI	-12.6025
▁jamBa	-12.6031
▁droNo	-12.6032
▁mardayed	-12.6032
mUrcC	-12.604
cOr	-12.6044
▁paFkaja	-12.6052
▁prIta	-12.6062
▁SArFga	-12.6063
▁SarmizWA	-12.6063
▁gAruXa	-12.6063
▁pulastya	-12.6063
gaBast	-12.6071
parameSvar	-12.6073
▁SUlin	-12.6074
gagan	-12.6077
triMSad	-12.6078
dUrvA	-12.6081
▁tanme	-12.6094
▁RzINA	-12.6104
▁sarvEH	-12.6104
dizwA	-12.6105
▁pIna	-12.6109
▁laFGana	-12.6111
▁viraha	-12.6123
▁barhiz	-12.6124
▁cihna	-12.6132
▁rodas	-12.6133
drAkz	-12.6134
▁SAlagrAma	-12.6144
ulbaNa	-12.6144
▁praSasyate	-12.6144
vihit	-12.6149
nyezA	-12.6149
▁kUj	-12.615
▁tattad	-12.6151
dAyi	-12.6152
epsit	-12.6159
cAmara	-12.617
▁viDIyat	-12.6172
▁jvAlay	-12.6172
sAvitr	-12.6183
▁aryaman	-12.6184
▁mUrKa	-12.6184
▁BallAtaka	-12.6186
SUlA	-12.6187
vyaQjana	-12.6187
▁samudBava	-12.6187
aTo	-12.6198
▁bimba	-12.6201
klam	-12.6204
▁jalada	-12.621
kaNXU	-12.6211
jagan	-12.6213
sadBAva	-12.6214
▁cAlay	-12.6215
▁avalamb	-12.6218
vartanta	-12.6222
▁vipAcay	-12.6224
▁atiric	-12.6224
jQE	-12.6228
cared	-12.6231
Sriy	-12.6257
▁jAhnavI	-12.6265
▁pitLNAM	-12.6265
catvAriMSat	-12.6265
▁tarasvin	-12.6266
▁SataSo	-12.6267
▁paQcaviMSati	-12.627
▁geha	-12.6271
▁viBAvay	-12.6273
▁asaMSaya	-12.6279
guNE	-12.628
dvAre	-12.628
▁sAday	-12.629
kaNwa	-12.6302
▁devadAlI	-12.6306
▁yavAgU	-12.6306
▁nAmaDeya	-12.6306
▁kvAp	-12.6308
▁takzaka	-12.6308
▁BOma	-12.6308
Bitt	-12.6315
Pale	-12.6318
pret	-12.632
▁kukkuwa	-12.632
aTApi	-12.6321
▁jAtarUpa	-12.6323
▁Sabar	-12.6347
▁aBIkzNa	-12.6347
pIXitA	-12.6348
nitamb	-12.6349
▁nizkRti	-12.6351
▁puFKa	-12.6352
nugA	-12.6361
smABir	-12.6365
▁cIra	-12.6365
▁etezA	-12.637
▁BrAtar	-12.6371
▁yaTAnyAya	-12.6373
▁GRten	-12.6381
▁BuFkte	-12.6388
▁devadeveSa	-12.6388
▁tUzNIM	-12.6388
▁aQjasA	-12.6388
▁raGunandana	-12.6388
▁apAmArga	-12.6389
▁cakravartin	-12.639
▁kaPavAta	-12.639
vidyADar	-12.6391
kiraNa	-12.6391
▁kadAcit	-12.6392
sasarja	-12.64
rDe	-12.6408
BilAz	-12.6416
▁agnIzom	-12.6429
SRNot	-12.643
▁tomara	-12.643
maric	-12.6435
dustar	-12.6436
▁ezo	-12.6445
paraSvaD	-12.6451
kilbiz	-12.6452
Guz	-12.6464
nirdizw	-12.6465
▁tigma	-12.6471
▁samRdDi	-12.6472
▁balIyas	-12.6474
DUta	-12.6485
nirNaya	-12.6488
▁vinihan	-12.6508
vivek	-12.6512
PAlgun	-12.6512
▁maQjizWA	-12.6512
▁yadRcCA	-12.6512
purogamA	-12.6513
▁maKa	-12.6513
▁zaNXa	-12.6515
unnat	-12.6528
sarvAFga	-12.6528
varcasa	-12.6538
▁Uh	-12.6545
valgu	-12.6546
DIyante	-12.6549
▁vyatikram	-12.655
▁prakIrtitA	-12.6554
▁aByantara	-12.6557
pAcan	-12.6558
pramey	-12.6558
tizWet	-12.6559
▁bANE	-12.6561
vAluk	-12.6563
Amalak	-12.6564
niryAsa	-12.6567
▁patatri	-12.6569
paTy	-12.6576
odita	-12.6579
pASa	-12.6582
pravIr	-12.6586
mantrit	-12.6586
daDAt	-12.6595
▁mAtali	-12.6596
▁Sete	-12.6597
meGa	-12.6605
brAhm	-12.6607
▁prAyeN	-12.6608
▁evEt	-12.6618
samutpann	-12.6619
▁juhv	-12.6623
▁saMhRz	-12.6626
▁yuyutsu	-12.6626
vapur	-12.6626
nukamp	-12.6638
▁amAvAsyA	-12.6638
▁arocaka	-12.6639
▁sukumAra	-12.6639
BANXe	-12.664
▁BrAnt	-12.6642
muKE	-12.6643
▁AhavanIya	-12.6648
▁vyakti	-12.6653
▁samalaMkR	-12.6669
▁Sive	-12.6671
dUzi	-12.6672
titikz	-12.6677
▁sikatA	-12.6681
▁paryavAp	-12.6682
▁vRzaDvaja	-12.6682
▁kzuB	-12.6688
▁pRzwo	-12.6691
lAFgal	-12.6694
cintayat	-12.6698
▁kulaputr	-12.6701
▁manmaTa	-12.6724
▁saMpr	-12.673
niroD	-12.6734
spRzwa	-12.6744
Amantrya	-12.6748
▁cokta	-12.6764
▁dASArha	-12.6766
▁jarAsaMDa	-12.6766
dOrbaly	-12.6766
▁ulUka	-12.6766
▁prAFmuK	-12.6766
▁svarge	-12.677
▁kacCapa	-12.6774
▁BrAtu	-12.6775
▁niyut	-12.678
kuSalA	-12.6792
zwAdaS	-12.6801
▁jitendriya	-12.6802
▁Silpa	-12.6809
▁yaTAtaTa	-12.6809
▁dolAyantra	-12.6809
mahodaD	-12.681
▁AcCAday	-12.6813
▁yukt	-12.6814
kzatriy	-12.6819
cintayan	-12.6819
cakrame	-12.6827
▁racay	-12.6831
miTun	-12.6837
gRDr	-12.6849
nirudD	-12.6851
▁gAlava	-12.6853
ekASItisAhasr	-12.6853
▁vigarh	-12.6854
brahmacAriN	-12.6855
vyaBicAr	-12.6859
▁cakri	-12.6861
▁vAyasa	-12.6863
▁tryaha	-12.687
SiSir	-12.6878
mUrDn	-12.6887
paryAy	-12.6892
vepaTu	-12.6895
▁kaccid	-12.6895
▁pinAkin	-12.6895
▁svAFgaSIta	-12.6895
▁puruhUta	-12.6895
▁svAyamBuv	-12.6895
▁kasyacit	-12.6896
▁kzAlay	-12.6896
▁malla	-12.6897
▁gahana	-12.69
▁bisa	-12.6902
▁yaccA	-12.6904
▁hiraNmaya	-12.6904
pRTivy	-12.6907
sAgara	-12.6927
dRXa	-12.6933
▁idAnIM	-12.6939
▁pASupata	-12.6939
▁puroXASa	-12.6939
gadgada	-12.6939
parAyaNA	-12.6939
▁vidArI	-12.6939
AvRtya	-12.6955
dityA	-12.6966
daDyAt	-12.6975
▁dvitIye	-12.6982
lAFgUl	-12.6983
▁etacCrutvA	-12.6983
▁samyaksamboDi	-12.6983
▁Kura	-12.6983
ArabDa	-12.6986
▁paripAlay	-12.6987
▁pOrNamAsI	-12.6988
▁BagavAMs	-12.6996
▁prayatnen	-12.7
mUzAyA	-12.7
yuktyA	-12.7006
▁balen	-12.7022
meGA	-12.7022
bda	-12.7025
Odumbar	-12.7026
▁Sambara	-12.7026
▁dUrAt	-12.7027
▁brAhmI	-12.7029
mocana	-12.703
pIlu	-12.703
▁pralepay	-12.7032
mRzwa	-12.7034
▁sAttvika	-12.7035
▁viveka	-12.7036
lAGav	-12.7039
▁vikraya	-12.7045
▁putrANA	-12.7049
▁gAlay	-12.705
▁kampay	-12.7055
sUkt	-12.7062
izWe	-12.7069
▁sTErya	-12.707
▁anuzwuB	-12.7071
▁saMsmR	-12.7075
▁sraMs	-12.7076
▁kzatriyo	-12.7088
nandA	-12.709
snAta	-12.7101
pAruzy	-12.7111
▁svargA	-12.7114
▁dEnya	-12.7115
▁kAmboj	-12.7115
▁prasenajit	-12.7115
▁kapitTa	-12.7116
▁samutsRj	-12.7129
▁svapne	-12.7137
▁pinv	-12.7156
▁udumbara	-12.7159
▁kekaya	-12.7159
▁AkarNay	-12.7159
▁lAFgalI	-12.716
▁vistareN	-12.7161
▁puraskRty	-12.7165
RzaB	-12.7177
▁nirantara	-12.7183
putreN	-12.719
ntarikza	-12.7195
▁Danada	-12.7197
▁viSoDay	-12.7204
▁pinAka	-12.7204
▁jaGn	-12.7209
▁tiras	-12.721
digDa	-12.7222
Kid	-12.7222
▁abja	-12.7234
ASrita	-12.7238
vinirmukt	-12.7243
▁viSAlA	-12.7243
▁boDisattvo	-12.7249
▁puNXarIkAkza	-12.7249
▁SOrya	-12.7249
▁aFkura	-12.7249
▁arvAk	-12.7253
lagna	-12.726
▁aByAgam	-12.7274
mandir	-12.7277
▁devE	-12.7278
codita	-12.7286
hlAda	-12.7288
rdita	-12.729
▁nipuNa	-12.7294
▁prajayA	-12.7294
▁vArAha	-12.7294
▁saced	-12.7295
▁Bagadatta	-12.7295
mUXA	-12.7297
Aropya	-12.7311
jaWar	-12.7325
▁hiraNyakaSipu	-12.7339
▁sOvarcala	-12.7339
▁vEkartana	-12.7339
▁vipaScit	-12.7339
▁pANXaveya	-12.7339
▁veSyA	-12.734
▁niHSeza	-12.734
▁navanIta	-12.7341
goDA	-12.7355
▁ekaviMSa	-12.7369
▁leBe	-12.7384
▁vartula	-12.7384
▁pUruza	-12.7385
▁Gore	-12.7399
▁parE	-12.7401
vRzw	-12.7403
▁pratApavA	-12.7414
▁darB	-12.7417
sRQjay	-12.7424
▁SirIza	-12.743
SeKara	-12.743
▁svAtantrya	-12.743
▁uSIra	-12.743
▁aSakya	-12.743
▁aSakta	-12.7431
▁kuladuhit	-12.7431
▁vidDvA	-12.7431
stabD	-12.7433
▁dIkzit	-12.7438
gaNE	-12.7448
kzAnt	-12.745
▁anuraQj	-12.7458
▁DOmya	-12.7476
▁juhuyAt	-12.7476
hetav	-12.7477
pInasa	-12.7482
udDRt	-12.7505
puMgav	-12.751
nivizw	-12.7513
▁BoktR	-12.7522
▁aSvatTAma	-12.7522
▁unmatta	-12.7522
▁ekIkR	-12.7523
▁biBrat	-12.7524
▁vaQcay	-12.7525
mok	-12.7526
udDaret	-12.7526
▁jAnAt	-12.7534
ojjval	-12.7543
maDyasTa	-12.7563
ekzaNA	-12.7567
raNyA	-12.7567
▁nirUpay	-12.7571
jawil	-12.7574
musta	-12.7574
▁vihaMga	-12.7576
▁vismR	-12.7577
dAruNam	-12.761
timir	-12.7614
nidra	-12.7615
▁BEkzya	-12.7615
▁jamadagni	-12.7615
▁kzaNAt	-12.7616
▁catvAra	-12.7619
▁mahAmune	-12.7626
jarjar	-12.7635
▁BuQj	-12.7649
nidrA	-12.7656
▁saMtarpay	-12.7662
DAtakI	-12.7662
visPAr	-12.7662
▁DUmra	-12.7664
locan	-12.7677
▁sambanDin	-12.7709
▁samyaksaMboD	-12.7709
▁sadASiva	-12.7709
▁durADarz	-12.771
svinna	-12.7715
meDA	-12.7721
▁pAraga	-12.7727
mene	-12.7736
vyavAy	-12.7743
mArgA	-12.7755
▁kRtavarmA	-12.7756
▁tryambaka	-12.7756
▁samyaksaMbudD	-12.7756
▁sAmudra	-12.7756
▁vareNya	-12.7756
▁suzeNa	-12.7756
▁niKan	-12.7756
pittAsra	-12.7759
Atape	-12.7767
sahasreN	-12.7795
▁sAdin	-12.7798
mahAbalam	-12.7801
mantreN	-12.7802
Odana	-12.7802
▁tRtIyasavana	-12.7803
▁akasmAt	-12.7803
▁nAwya	-12.7803
▁vijQeyA	-12.7803
▁parikIrtita	-12.7803
▁Rzayo	-12.7804
▁dInA	-12.7808
yazwyAhva	-12.7851
▁SaSAFka	-12.7851
▁agr	-12.7858
saciv	-12.7859
kRzNA	-12.7859
▁asUy	-12.7863
▁mAday	-12.7877
krAmat	-12.7895
▁BEzajya	-12.7899
▁nalinI	-12.7899
▁sOKya	-12.7899
▁viviDEr	-12.7902
BOtik	-12.7905
pralAp	-12.791
▁naSyat	-12.7912
picu	-12.7913
▁BuQjIt	-12.7938
▁rAjQI	-12.7947
▁CittvA	-12.7947
▁vAditra	-12.7947
▁damayantI	-12.7947
▁dAyAda	-12.7947
▁keSin	-12.7957
loXay	-12.7962
kArmuk	-12.7974
sPawik	-12.7987
▁mEtrAvaruN	-12.7995
▁varavarNinI	-12.7995
▁vivasvant	-12.7995
▁etasminn	-12.7995
▁ivod	-12.8007
▁sarvaga	-12.8016
saMKy	-12.8025
dAXim	-12.8043
▁dvijottamA	-12.8043
Sakal	-12.8054
marIc	-12.807
jugups	-12.8092
▁KANXava	-12.8092
▁cAturvarNya	-12.8092
▁SatrUn	-12.8092
▁pravrAj	-12.8093
▁viBAvasu	-12.8093
pratyekabudD	-12.8097
▁dadAm	-12.8098
drAvE	-12.8139
▁pArzNi	-12.8141
▁aByupe	-12.8141
▁saMkoca	-12.8143
vitarka	-12.8145
▁UrNA	-12.8147
vinazw	-12.8165
▁brAhmaNE	-12.8178
dvIpe	-12.819
▁IrzyA	-12.8191
▁darSanIya	-12.8191
▁jyAyas	-12.8191
▁kanIyas	-12.8193
dyUt	-12.8209
paSyAma	-12.8219
▁maGavA	-12.8238
nEmittik	-12.824
▁glAni	-12.824
▁harmya	-12.824
▁rOpya	-12.8241
DanaMjay	-12.8255
anumod	-12.8266
kukkuw	-12.8273
▁yuQj	-12.8284
SiTila	-12.829
maQjarI	-12.829
▁brahmaNya	-12.8298
gADa	-12.8322
endriyAN	-12.8325
▁samety	-12.8325
▁ambikA	-12.834
▁darvI	-12.834
▁raTopasT	-12.834
3	-12.9233
2	-13.576
#	-14.555
1	-14.555
